[PAD]
[UNK]
[CLS]
[SEP]
[MASK]
이
.
에
다
는
을
하
의
고
가
한
은
지
를
,
있
대
기
으
도
그
으로
사
1
시
수
해
인
2
들
에서
했
것
로
과
아
전
보
어
위
##니다
일
정
적
제
부
자
'
주
(
)
만
경
등
조
라
공
면
여
되
개
관
나
중
습
할
게
"
국
3
상
원
와
습니다
년
된
예
한다
’
‘
말
성
내
연
소
선
“
”
신
안
20
서
비
마
유
문
4
5
·
거
때
었
없
생
우
세
오
않
구
모
교
입
계
통
겠
분
장
명
위원
방
최
회
실
미
발
?
현
며
%
월
동
재
차
당
법
진
화
바
강
까
6
또
까지
받
단
스
결
감
##00
무
따
라고
김
더
건
영
저
##니까
노
학
특
지난
사업
대한
불
던
추
7
같
다는
##해서
반
확
지만
올
억
금
후
다고
아니
면서
는데
처
합
8
에게
설
많
매
권
문제
됐
운
요
달
았
행
때문
우리
배
간
님
산
평
출
된다
업
및
드
청
투
9
지역
그런
지금
경우
포
박
그러
직
점
한국
10
알
정부
남
판
함
부터
물
협
규
증
필
호
생각
심
활
라는
민
201
검
도록
작
지원
입니다
참
외
피
될
역
200
해서
임
체
시장
두
본
데
열
가지
파
기업
앞
총
교육
-
못
##렇게
이런
필요
집
항
각
번
관련
위해
밝
프
새
보다
초
말씀
대해서
양
해야
환
씨
사람
형
대표
이상
종
관계
질
따라
변
다음
k
높
취
서울
치
맞
19
계획
돼
m
타
그래
통해
경기
부분
광
천
좋
경제
목
복
농
용
지요
의원
가능
리
야
관리
시간
이번
연구
##통령
채
대통령
잘
국민
군
이나
사실
사회
조사
별
준
합니다
운영
근
위원회
위한
북
함께
기관
미국
개발
밝혔
약
삼
살
12
그래서
##000
현재
s
승
정도
11
줄
문화
그리
였
이것
예산
느
담
투자
창
다른
전문
음
논
산업
표
식
후보
세계
국가
누
충
내용
손
뒤
기술
토
지난해
중국
편
정책
만들
~
절
진행
결과
책
상황
사용
그렇
국내
ᆞ
이렇게
프로
추진
올해
30
대해
대상
좀
크
급
그것
금융
그리고
가장
순
속
이후
c
평가
늘
코
최근
께
15
대학
저희
하나
으면
특히
효
그런데
국회
독
언
어서
정보
넘
시작
카
곳
팀
갖
아이
측
걸
학교
시설
습니까
려
..
돌
병
...
큰
온
장관
지방
들어
완
찾
활동
다시
0
기준
여러
의견
일본
허
도시
l
축
어떻
이유
과정
사항
업체
관계자
##지만
거나
t
셨
지적
위원장
많이
모두
a
감사
이용
민주
사건
환경
센
결정
철
이날
드리
홍
얘
정치
예정
메
얘기
또는
어요
트
하지만
는다
업무
설명
##비스
기록
날
볼
친
단체
다양
규모
처럼
이어
학생
자신
디
경찰
회의
고요
회사
라며
버
태
그렇게
백
밖
브
참여
규정
i
향
삼성
골
선거
기간
자료
관한
서비스
패
따른
감독
13
국제
접
답
발생
센터
범
선수
확인
북한
벌
일부
글
께서
18
제도
폭
안전
요구
포함
네
는지
중요
대구
어떤
제품
길
힘
##대로
마련
눈
첫
해당
그러나
회장
시민
부산
개선
16
개정
특별
여야
여기
14
어떻게
뿐
100
주민
25
발전
니까
놓
방송
경쟁
동안
엔
얼
당시
가격
전체
계속
주장
공사
끝
행정
은행
시행
제공
확대
현대
잡
발표
막
사이
판매
위해서
##레이
새로
한다는
검토
피해
싶
행사
건설
나라
입장
노력
어려
>
이미
여성
애
최고
전국
따르
성장
테
커
##부터
50
대회
째
법률
<
교수
g
책임
왔
구성
갈
니
강화
폐
직접
p
17
수준
##시아
생활
계약
판단
으며
주택
쓰
증가
자리
인데
생산
분야
어야
준비
대책
플
이야
##운데
핵
인사
##스트
영화
률
기대
베
없이
일반
질의
활용
공개
냐
노동
협의
보험
모든
##랜드
존
공동
대로
설치
경영
보고
자동
수사
그러면
가운데
분석
다가
느냐
처음
인정
실시
나타
이야기
왜
먼
d
육
조정
처리
십
빠
최대
중심
내년
추가
관심
효과
송
부담
물론
인천
##무원
극
##그램
신청
b
##인다
만큼
전망
##랍니다
적극
소비
너
관광
시키
복지
프로그램
바랍니다
해외
제출
f
든
검찰
시스
휴
페
같이
방법
구조
나오
현장
돈
개인
기본
외국
아닌
24
달러
인터
상태
알려
실제
상품
적용
직원
21
상당
울
중앙
더라
키
시스템
낮
대비
거래
이하
새로운
보이
재정
공무원
고객
다면
쪽
보호
또한
광주
의사
심사
석
자체
40
조치
예상
22
논의
확보
모습
병원
방안
/
조성
못하
윤
기존
△
강조
몰
개월
홈
인지
한편
이사
란
사고
협력
주요
어느
오늘
중소
의료
잠
##기업
떨
유지
정상
한다고
그러니까
터
스타
e
오후
23
기능
선정
가족
먹
통합
나가
비용
건강
자동차
난
운동
사무
상대
그룹
희
방식
클
침
탄
응
우선
율
##어나
##마트
봉
아직
국정
층
지급
혁
답변
해결
자금
역할
우려
영향
미래
엄
종합
마음
먼저
됩
지속
보여
듯
검사
떠
의미
열린
행위
비롯
몇
전략
바로
성공
탈
합의
민주당
전문가
위기
시즌
역사
공공
교통
27
맡
품
제기
##너지
26
수출
기자
조직
레
판결
이전
과학
이제
변화
떨어
이해
역시
뉴
공급
사장
황
긴
28
로서
밀
이게
고려
통신
능
조금
반영
아파
징
언론
방문
악
199
도입
상승
러
지정
목적
등록
결국
씩
수익
##자리
너무
대부
더욱
아파트
콘
글로
자유
세요
다만
장애
얼마
납
평균
얻
반대
풀
보도
보인다
목표
글로벌
누리
여부
##으며
헌
블
시대
담당
집중
요청
됩니다
공연
사랑
제대로
거기
n
절차
단계
아까
더라도
풍
안정
기획
머
케
소득
뜻
조선
각각
대출
으로서
##동안
신고
돌아
매출
개최
고용
압
부족
쉽
밖에
기회
롯
마는
29
영업
가구
겁
어렵
귀
lg
스마트
나온
본부
마을
법원
롯데
중소기업
어린
해도
소속
가치
민간
지도
대부분
자연
훈
에너지
작품
치료
자치
셔
공정
아닙
마다
##이지
단지
집행
참석
전시
로부터
60
충분
전자
재판
오전
이러
근로
몸
둘
이뤄
선택
앞서
촉
브랜드
즐
이익
아무
수입
펼
캐
sk
현실
구축
##전자
혼
퇴
##다는
##리아
팔
장기
지난달
유치
사례
규제
공간
출신
자원
모르
법인
소비자
따라서
혁신
액
업계
녹
제작
법안
인력
작년
작업
도로
차량
예술
뛰
활성
봐
제시
능력
루
게임
수요
쇼
부동
성과
청와
구체
청와대
!
자기
뭐
혐
이름
봤
예요
:
31
거든
설립
2000
컨
견
분양
대응
수행
고자
##나라
일정
제한
무엇
차원
인터넷
사진
끌
취지
##이트
청소
드러
못했
펀
변경
차지
캠
##한다
체계
차례
마지
부동산
수도
도움
o
환자
인상
거든요
착
들어가
일자리
◆
##이스
논란
체험
핵심
하루
각종
지구
경험
공장
##bs
w
발언
홍보
##진다
굉
##므로
주식
경남
디자
제주
혐의
##반기
배우
려고
죽
격
굉장
마지막
방향
심의
라면
아야
동의
제안
투표
부문
제외
전기
km
tv
원장
과거
그동안
가입
실적
이루
정당
`
인기
카드
시험
대형
식품
대전
금리
굉장히
경기도
2010
외교
올라
인가
자산
노조
워
∼
리그
선보
질문
의회
참가
왕
려는
##전히
대하
2012
70
정말
금액
유럽
##라인
음악
차이
위험
주변
h
감소
시켜
r
올림
잘못
연구원
##은행
울산
반면
낙
펀드
분기
비판
기반
라도
모델
비율
만나
달리
높이
진출
티
출시
바람
범위
지지
근무
에요
분위
나왔
위하
위반
여행
개혁
올림픽
전환
외국인
전화
&
우승
총리
표현
훈련
지나
꾸
증권
해양
소송
국방
보장
파악
건축
현지
겨
에선
내부
##거리
##시오
불법
우수
찾아
효율
출연
한테
최초
정리
체육
아시아
선발
공원
삶
오히
오히려
2011
2009
항공
흥
어린이
겁니다
의무
어려운
35
##어난
연금
꿈
확정
보건
경북
된다고
교사
##인트
정확
부처
분위기
남북
대선
방침
디자인
사전
희망
최종
2008
거리
재산
2014
유통
갑
동시
아서
퍼
넣
취업
##든지
드라
▲
누구
십시오
기초
공식
거의
즉
혜
시청
바이
공항
나타났
토론
청소년
박근
1000
을까
임대
대신
원고
만든
이동
2013
원칙
5000
국토
##소리
비교
경쟁력
수고
」
「
소재
이라
위치
정신
본격
찬
변호
2015
잖
피고
##민국
##포츠
통과
건물
협회
놀
토지
대한민국
의혹
암
청장
박근혜
=
광고
예방
듣
빨
원인
소개
500
협상
으로써
마치
그대로
청년
전혀
전통
인식
작가
연기
거쳐
신문
향후
정하
의결
조합
##이터
시기
비해
넘어
최소
주목
원심
80
불과
조례
소위
과제
팬
청구
고민
조건
제조
묻
아요
공격
좌
기금
일단
무대
서로
보유
불구
맛
못한
포인트
어디
처분
잔
보조
사유
공단
##디어
회복
설계
알려졌
구매
근거
보수
재단
음식
스포츠
가까
아주
##으나
운용
점검
붙
내려
육성
꼭
세대
임금
기념
매우
인수
숙
겪
삼성전자
움
여자
신규
전달
수원
내놓
u
수정
통해서
나와
낸
대법
피부
깊
연합
류
분명
측면
의장
월드
##머니
실제로
지하
범죄
신용
상당히
##스로
체결
가정
##린다
그때
는데요
코스
보고서
빌
보내
골프
창업
매년
아마
지사
그냥
한나라
축제
한나라당
회담
##없이
보상
회원
하락
중단
숨
##립니다
허가
웃
통한
택
홀
작성
스럽
축구
수석
전부
대화
빈
슈
형태
보였
연결
강원
소유
으로부터
채권
통일
행복
스스로
##러스
##아요
균
인권
##er
사업자
평화
kt
특정
체제
아닙니까
자격
이르
정비
충분히
성적
금지
혹
사태
수립
지자
친구
헤
전력
의하
여론
봉사
2007
목소리
전남
독일
주도
영국
채용
졸
생명
인구
부정
덧
염
상고
##bc
##의원
실장
자는
꼽
첨
망
##가지
́
잇
헌법
농업
삭
32
흔
졌
대체
198
편성
젊
섬
구속
정권
혜택
인도
전용
300
빼
연장
싸
다르
당국
##ta
드라마
45
연속
려면
전했
벤
##스코
밤
흐
서울시
은데
인근
예비
등급
지자체
추천
남자
##운드
36
별도
##학교
연계
교육청
야구
##어들
33
국장
나서
노인
된다는
올리
색
비중
교과
변호사
##머지
나머지
하고
투입
승인
지켜
신뢰
##무리
걱
방지
걱정
푸
읽
열리
줬
발견
수용
창출
는가
죠
국립
솔
심각
전쟁
영상
사정
선언
그게
덧붙
선고
수상
학년
마무리
스러
개정안
##어지
근로자
세상
시절
스마트폰
의지
깨
이내
승리
가량
갈등
2016
바라
냈
앞두
입니까
프리
움직
##아들
가져
믿
수술
사망
벗
둔
공부
론
주인
이끌
달성
곡
가진
학습
만드
전반
인해
덕
프랑
슬
현상
잖아요
실질
상담
온라인
끼
##텐츠
부모
줘
입주
준다
오른
영어
해석
야당
자본
##공사
##드시
반드시
고등
인증
언제
무슨
자세
보증
짜
##서관
주제
인한
술
국회의원
유명
소리
여러분
피해자
특수
차별
얼마나
##in
장비
약속
할인
v
선진
도전
미술
단순
프로젝
한다면
무역
초등
의한
봅
어려움
구역
쇼핑
기억
안타
호텔
34
진단
통계
콘텐츠
외부
전년
당연
비슷
러시아
회계
직무
덧붙였
차관
감안
기사
프로젝트
지식
여름
철도
힘들
주로
총장
늦
나온다
으나
스타일
90
##산물
##버지
융
◇
반응
해소
완화
확실
##레스
부지
화학
드립니다
촬
시도
배치
신설
촬영
국무
밝혀
본인
강력
상임
아동
인하
이명
기구
남성
##on
독립
으니까
##리스
했으며
인간
과장
올랐
계기
매각
프랑스
땅
확산
입법
존경
향상
요금
학부
##환경
존재
선물
곤
소통
여전히
갔
현황
계열
맥
속도
나섰
38
마찬
기재
마찬가지
폐지
혈
부서
셈
수수
받아들
당선
결혼
데이터
이른
특성
강남
등장
복합
공유
타이
3000
취소
끊
냉
이곳
버스
##라이
군수
손해
옮
처벌
##이션
부과
2006
옥
용역
##규직
더불
거부
##바일
허용
연구소
■
##20
탐
자녀
연간
모바일
협의회
쯤
바탕
적절
##케팅
공약
화장
꽃
##페이지
이달
홈페이지
김정
부장
달라
획
시각
마케팅
하이
수업
##사자
이행
살펴
뽑
시정
##화점
메이
정의
지수
37
곧
줄이
협약
심리
자율
##든가
졸업
통화
안보
불안
접근
봅니다
나선
철저
it
모집
늘어나
법무
아들
세월
행동
통상
증인
컴
싱
찍
##수록
넓
시점
소방
매장
최저
득
주문
얼굴
균형
##페인
구청
전형
순위
기여
틀
십니까
이사장
생태
마이
군사
대사
규칙
보완
##스크
직장
##프트
서류
비상
욕
계시
kbs
##다고
익
죄
쌓
권한
]
뇌
그만
권리
대안
만약
교류
[
문재
현행
55
이미지
므로
나갈
위탁
간사
○
##벤트
공직
궁
참고
만족
장소
이벤트
라이
##아가
겨울
레이
교체
최선
부탁
부대
정기
빨리
면적
조항
드렸
편의
주가
접수
물질
오르
이명박
원전
전해
컬
패션
당초
잃
쏟
원내
표시
대중
개편
돼야
부상
##총리
맞춰
쉬
부품
실패
공감
충남
친환경
케이
기부
대변
세금
지분
요즘
구입
인터뷰
창원
월드컵
노래
칼
시킨
소장
지키
값
뮤
본다
65
뉴스
으면서
역량
드린
뜨
광역
품질
아름
투자자
꾸준
라인
2017
##an
국방부
배출
한번
##회사
든지
사안
페이지
증거
짓
느낌
사상
취득
2005
백화점
딸
감정
39
대우
그림
척
신경
장치
바꾸
공모
금년
바뀌
똑
co
사과
사법
원자
시켰
셔서
출전
의식
노동자
고속
훨
】
【
48
빚
통보
진흥
문제점
관광객
##학생
소외
무료
촉구
언급
여건
겸
지시
연출
훨씬
42
뒷
휴대
부채
불편
개념
진술
아버지
불가
멀
협조
매일
민원
흑
폐기
mbc
펼쳐
영역
제일
인물
증액
설비
빛
반발
완성
fta
학원
실무
봄
아닌가
이어지
써
특허
양성
43
절반
주차
나중
출마
객
쿠
들여
주거
포기
아래
나이
미치
옛
느끼
보안
생기
롭
총선
인원
조기
출발
41
교육감
형성
기다
히
코리아
##니스
사실상
서면
동일
종목
나타나
임기
둘러
소식
발굴
법률안
네트
기타
부실
대법원
발행
검증
##or
오래
공천
##스터
현대차
쌀
##프라
동아
합리
2018
아닙니다
걸쳐
챙
그린
##st
스트
맨
상반기
결론
선생
동물
요인
##반도
회견
제재
##럼프
##디오
물량
시킬
한화
집단
##지사
가스
탑
44
부여
j
김영
유일
불리
구간
순간
추정
##ed
미리
단위
부당
아울
취임
##요일
##원회
건립
늘어
평소
콜
청문
오픈
사이트
유리
75
웨
폭력
인재
머리
업종
쓴
출범
알리
경비
엘
46
투명
학부모
조차
한반도
석유
서민
과연
제정
하반기
진정
기소
져
중간
창조
설정
완료
현안
흘
스러운
자문
하여
지상
누가
피고인
시리
과세
맺
임명
연대
관람
갤
어도
트럼프
실천
떠나
지출
##ct
긍
사라
선박
관객
전면
47
##십니까
질환
명예
비리
개국
농협
텔
직업
여당
경주
저축
짧
##대표
한계
##회장
##직원
197
손실
타당
메시
서식
다니
##이드
52
초과
권력
특징
갖추
##일정
인프라
강제
의사일정
밑
봐야
빅
2004
간단
##ar
49
출석
급여
##워크
미디어
교육부
고교
브라
떨어지
##우스
그랬
예측
징계
유가
##ia
##조합
##일보
다며
임원
포스코
서울대
분명히
팀장
부부
배경
고위
시행령
축소
##심히
이자
더니
형사
긍정
아니하
kg
포항
자주
다소
문학
바다
임시
초기
정원
강한
수수료
kb
엄마
나요
채택
오염
세트
앤
400
시리즈
화재
부인
주년
개별
운전
점수
구분
똑같
폴
문재인
불러
일으
했으나
기기
국세
첨단
따로
부진
나무
##en
노사
아울러
매력
##어진
플레이
51
실현
채무
유사
버리
녹색
디지
벌이
도서관
문화재
투수
주의
부회장
응답
가수
##다가
계산
아름다
모아
찬성
재미
앉
빠르
관하
법령
무상
휘
애플
촉진
연수
미사
해요
대상자
투어
표준
성격
##at
요건
캠프
긴급
지휘
밝히
자전
대학교
4000
적자
아침
베이
걷
늘리
홈런
열심히
53
디지털
연말
나누
단속
내리
사업비
수학
대리
승부
절대
네트워크
벽
확장
감사원
맞춤
흡
났
주말
당장
보조금
경선
담보
매입
프리미
다이
수능
명확
54
보통
빠져
모양
마리
노선
상장
돕
##ic
명령
퇴직
정해
원래
##메달
옆
법정
납부
시위
조달
##스타
비밀
분리
자랑
재난
쓸
탓
박물
진료
번호
대변인
뉴욕
원내대표
이거
근본
점유
단일
최대한
태양
구청장
자전거
헬
일상
총괄
극복
리더
경력
굳
요소
소관
기계
선임
거주
뿌
##교육
가동
진보
진입
아프
세력
대행
낼
올렸
침해
텍
##담회
대북
챔
56
거듭
유도
무기
이재
환경부
통제
고급
59
갖춘
악화
실태
앱
오해
작용
위협
해운
개입
2002
밥
―
미만
ce
파견
보전
줘야
꾸준히
당사자
할지
반복
지점
농가
+
도와
새롭
상호
시범
박물관
전북
빠른
커피
으려
베트
##훼손
이탈
주관
85
천만
소요
간담회
쌍
개막
개방
구단
집회
협정
추세
기울
입학
대강
수급
매매
벨
메시지
안내
고발
완전히
58
여수
판사
입찰
강원도
수당
스토
##다면
흐름
2003
두산
어머니
현금
대단
모임
농촌
57
엄청
위법
멤
만난
줄어들
돼서
주인공
확충
소프트
링
수단
채널
이뤄지
텐
대폭
150
심판
장면
넥
공제
의해
##자기
물가
후원
계층
청문회
듯이
유출
99
위주
형식
살펴보
춘
바람직
기아
##거운
국정원
##ec
실업
단독
역대
텔레
보관
##al
##리카
박사
을지
대구시
주력
굴
나올
동원
##공업
품목
베트남
##ou
유엔
시티
장점
6000
나눠
항목
전세
동반
동료
으므로
당연히
총회
런
밝힌
벤처
재원
의해서
##ns
벗어나
비정
쟁
절감
논리
##티브
운행
사퇴
정지
000
가까이
계열사
의심
취약
도지사
가슴
매수
cm
활약
법무부
초청
이외
덜
가을
단기
슈퍼
직후
훼손
인생
눈길
8000
예고
재무
고양
살리
셔야
고령
의도
간부
수시
소설
블랙
그럼
교과서
산하
위안
동기
##it
압박
멤버
이라든지
64
84
다수
침체
##세대
량
로운
배상
태도
63
##고기
제고
삭감
##단지
늘어난
마저
대기
지침
학과
내세
비정규직
세부
돌파
천안
살아
득점
실력
종료
##나무
전날
노무
강의
적정
남편
미사일
묘
별지
충격
개성
이란
포럼
성남
바이오
##피스
지배
혁명
지주
물류
챔피
도심
수비
##란다
혹시
그래도
드릴
복귀
신한
관세
고등학교
지난번
예산안
실험
옷
카메
네요
개설
무리
꺼
치열
증명
결의
66
감시
분류
김성
구제
잇따
숲
비난
일어나
당부
낭
상정
테러
전공
유기
셋
결산
##른다
돌아가
꼬
컴퓨
전하
라든지
가까운
경찰청
불가피
짜리
횡
고통
뮤지
임직원
차단
##카드
상징
힐
연주
61
오랜
산림
필수
딱
비행
공인
즐길
자꾸
합격
반도
결제
수주
보육
항상
비즈
경고
인공
단장
연습
신속
오바
##소득
전제
성능
보존
올려
숫
적합
견해
곳곳
기상
후반
세우
72
는다는
와서
카페
데뷔
대학생
바꿔
196
오바마
고시
7000
선포
상위
평창
르
거론
출입
끌어
움직임
엑
비전
공익
증시
국내외
변동
끝나
주체
숫자
캐릭
가르
외환
95
강사
라운드
징수
제약
합병
컬러
캐릭터
주주
##터리
성명
미군
상환
이래
클래
물품
2020
##가스
보급
펼치
즐기
프리미엄
흔들
아도
호주
불만
원자력
가계
요리
보험료
합니까
연도
괴
칠
중공업
장학
동부
썼
계좌
본사
카메라
아내
어떠
집계
62
발사
화제
허위
지표
융합
청사
전원
대처
배제
독자
감염
호남
수리
뭔
600
희생
##단체
국감
##플레이
택시
탁
초반
한정
털
한데
제거
환율
키우
지연
##건설
등기
ceo
모여
안건
반도체
키로
신중
으니
마트
순환
페이스
공기
컴퓨터
주일
들어간
긴장
y
들어오
했었
##관리
노동부
앨
플러스
민족
의문
이용자
처장
결승
선진국
클럽
세무
67
대법관
그만큼
학기
cj
sns
용인
##주시
68
해제
이슈
pc
시내
시급
조합원
선도
동력
지하철
아름다운
박람
평생
활발
수집
식당
2001
커지
잠깐
문서
광장
아예
파업
대통령령
냐는
급증
정착
사무실
##산업
상생
조언
선호
바란다
화장품
세기
종시
관측
나눔
조작
혼자
질병
발급
예금
노출
아쉬
교부
배당
무려
아이디어
세워
ww
노후
면접
폼
인정받
재료
공소
타임
진실
분쟁
농림
파크
재정부
의뢰
적발
##고요
사기
이승
힘든
잊
##ot
기지
자고
강하
완벽
탄생
파트
중대
##버스
떨어진
농민
들어갔
중학교
폭발
섭
종류
저녁
김해
##다른
삭제
##이너
대금
화면
gs
노무현
선보이
##서트
www
특별법
고서
##is
식사
샤
비즈니스
그녀
도내
마감
일제
설득
도착
양국
따뜻
소화
과목
열린다
이웃
로봇
산정
일대
아이템
주행
##리트
멘
화려
덕분
어제
회수
공시
가로
작전
전담
주최
하늘
용어
컨설
타자
혹은
세종
해명
띄
력
순서
재생
##50
실정
마시
##도로
##총장
내렸
갑자기
##거래
줄어
유형
이정
일까
74
73
증진
최소한
으시
맞추
한국인
##oc
구상
출자
부르
경계
▷
공고
진짜
칭
영장
##니아
발전소
돌려
과도
엔진
아트
공기업
나아가
취재
##웨어
브라질
김태
그럴
연극
셀
구미
kr
머물
관여
71
이건
캠페인
산업단지
청약
알아
조세
측정
호소
풍부
챔피언
테마
##하면
→
부총리
신세
여유
영양
77
권고
위임
##리오
타격
생긴
제주도
98
취하
드러났
느껴
급식
ai
복원
추경
부사
전개
증상
대장
됨
감면
경기장
성분
입지
합동
웃음
민주주의
연령
가공
관해서
정체
정한
시인
왜냐
박람회
디스
어쨌
건전
다운
충북
성폭
명시
넘어가
76
내역
기각
징역
연봉
눈물
저렴
야권
잠시
이루어지
##그룹
밴
상업
실수
체육관
엠
부위
개소
일시
이렇
##철수
의정
선출
휴가
##져야
우주
선두
조명
겁니까
텔레콤
정규
이른바
수십
밟
키워
물건
모니
콘서트
김종
69
서명
금메달
광주시
폐기물
이틀
발의
ᄀ
##니어
의약
가득
800
끈
지진
미세
된다면
경찰서
명품
연예
거치
예약
부가
상임위
생존
저자
괜
추석
##사고
못해
고도
뮤지컬
##에도
추구
시청자
##권자
제목
떨어졌
철학
객관
건수
##es
법리
한도
달하
준공
가졌
중복
명의
mm
고향
발휘
기후
▶
수렴
끝난
왜냐하면
##러리
출판
가입자
한미
##et
농산물
일방
전해졌
소지
혼란
화물
매출액
연락
88
다리
맹
검색
##증권
깔
무시
모니터
항만
뱅
테크
소위원회
비서
플랫
120
토대
중점
뛰어
어려워
대만
자살
부작
선배
대결
보충
당하
최우
에어
9000
실내
할머니
상무
조절
##항공
텐데
묶
##준다
진다
상가
78
방어
사후
내년도
용도
지도자
사령
외교부
해고
화성
뿌리
트렌
kia
기다리
통하
그걸
브리
경향
파이
투쟁
##라도
크기
건의
sbs
##란드
사업장
원안
관할
방사
##천시
지명
폐쇄
응원
안철수
네이
사드
궁금
##라스
주차장
시선
짐
소형
승진
판정
매체
그쳤
경상
충청
##레이드
격차
배려
국세청
대가
재해
방해
면제
토론회
202
철강
도민
좁
컨설팅
나름
개통
어쨌든
재건
언어
입증
##30
수치
##ing
##cc
창의
남녀
성실
재개
교실
700
일자
돼요
극장
늘려
에스
공동체
선사
구글
출산
밸
결합
보냈
기아차
신분
수산
호흡
이기
배정
직전
##어도
상관
##말로
트위
쏟아
인데요
충돌
안팎
공학
양해
아웃
##ga
차장
팩
거짓
대학원
면세
묵
웹
단순히
수많
내수
유해
특위
홍콩
##카오
점포
지도부
하우스
크리스
유니
박지
포장
여서
##시다
단체장
차질
멋
상인
자극
아무리
별로
입시
국무총리
q
##영상
동해
물리
사단
##문화
교원
계신
소녀
규명
대단히
##바로
모으
그럼에도
연료
유로
올린
명칭
윤리
바닥
발주
낳
당해
꼼
메르
렌
철저히
할까
왼
중구
##란히
동네
x
양산
요원
줄여
감축
전액
특화
종교
서구
아무런
편리
인건
납품
점점
주간
옳
eu
인건비
전투
##웨이
개헌
초대
아르
완전
옮겨
일어
통지
문자
상공
접촉
토록
찾아가
지위
훌
앨범
공헌
저소득
상상
예전
내일
완공
하여튼
족
걸로
복잡
##ll
##리어
이탈리아
연맹
높여
원활
영남
재판부
메이저
수지
트위터
없애
회관
실행
스페인
부적
금감
교환
저지
##드리
참사
해졌
일치
오리
유치원
해수
라든가
걸리
농어
‧
착수
용지
열정
떠오
성향
새벽
97
쓰레
st
영입
사이버
뚜
벌써
세입
##세요
인용
이닝
##나다
##사업
쓰레기
컵
펴
첫째
둘째
성인
th
갤럭
톤
정식
엄청난
##시장
갤럭시
정규직
동영상
축산
전시회
신체
유동
이때
죄송
농구
mb
잉
저장
모색
나설
고정
가맹
in
##힌다
##ion
구현
즉시
진상
구하
유발
당했
스테
이종
동남
향해
인천시
정치인
깊이
페이스북
여의
박정
사립
떠올
공직자
뛰어난
건축물
시사
존중
보낸
섬유
인문
출장
업자
싸움
용품
김재
81
쏠
학자
유아
다섯
어울
마친
감액
재배
##비아
골프장
올라가
은퇴
부작용
생겼
명단
알려진
코치
##구역
평등
점차
가리
물러
82
##스티
com
상금
우리나라
대답
잠재
86
어린이집
책임자
뭔가
비추
행정부
바른
느낄
도약
약간
받아들이
아니면
대거
해군
쟁점
부산시
공정위
실효
제조업
교섭
스토리
참가자
벌금
기조
평택
천연
호기
사무소
부사장
스트레스
동구
특검
날씨
앞장
교회
캐나다
##re
주자
96
79
관행
괜찮
공청
미술관
군인
수영
이라든가
전당
펜
비서관
당신
반환
블록
더라고요
87
아닐
떼
넷
담배
시공
대외
래
죽음
학회
신호
정수
공통
상승세
특례
몽
철회
##널리
질서
취급
급격
##복지
다루
만났
#
뷰
교통부
경매
##친다
위촉
##조건
바라보
운송
태양광
##으면
알려져
중도
고문
논문
달려
핑
아니한
공청회
매달
임용
파워
김현
스피
적어도
고소
보좌
오피스
사무총장
개봉
내린
##드러
한지
감동
신세계
통일부
상하
중동
내지
에다
건데
공화
벌어
카카오
이어졌
들어서
문의
담당자
아시
의존
관장
도청
강구
유력
신입
91
해진
으셨
학술
이중
83
앞둔
강연
94
철거
영화제
됩니까
노트
의약품
정확히
춤
는다고
진로
컸
남부
총재
드러나
유인
참조
김상
압수
사원
기한
건조
통증
재벌
소득세
케이블
금호
수질
정밀
종전
선보였
법관
놀이
다시피
런던
보훈
연평
돋
쏘
꺾
이주
유입
진학
갖춰
공포
데이
벌어지
일원
증언
쾌
공략
메뉴
무게
1990
주소
협동
클래식
그간
원하
일괄
획득
예외
상처
기본법
빠지
운전자
전주
일각
쇄
커뮤
각국
커뮤니
편안
깜
무효
92
독서
즈
초점
매치
김동
곤란
흥원
기분
pd
기대감
연합회
응급
열렸
ip
주기
임무
金
거두
파리
엑스
식물
89
##간다
간접
코스피
안심
착공
is
원가
im
관점
당일
움직이
상당수
고지
흘러
트리
탄력
곽
설문
한전
지원금
모았
국고
타이어
탄핵
어려울
93
미니
정한다
비례
미흡
아프리카
모자
엉
방위
행보
양도
##듭니다
독도
이어질
도발
빙
lh
스위
끝내
##케이션
폰
gm
구도
교장
##라고
고맙
휴대폰
진주
전지
탄소
솔직
놀라
생물
스케
이걸
깎
당한
해상
거래소
리조
강점
트렌드
지나치
고유
소중
##지어
##수산
위상
의학
자면
어깨
시중
누적
늘어났
랑
##퍼스
콩
마쳤
소음
체크
멈
법제
집권
##디션
복무
김포
플랜
이마트
특별히
재건축
면허
지검
동북
실시간
증권사
용산
내내
##이브
유권자
와인
휴식
역전
금감원
그건
소수
가상
살인
떨어져
몰려
중견
지법
리조트
피아
선보인다
쇠
아우
치러
가이드
방치
과태
장학금
##te
추적
과태료
가결
무조건
다녀
일관
마산
곧바로
촛
초래
김진
차기
델
게시
깨끗
안양
납세
김대
충실
만남
충족
즉각
단축
굳이
표명
항공기
될지
가전
표정
02
유족
##ra
마당
워크
고인
하위
경과
●
엄격
잇따라
지부
뭘
fc
국비
둘러싼
선거구
노동조합
심화
스크
##우드
파괴
높였
##하우
복구
낙동
##스티벌
페스티벌
판시
맥주
지지율
변수
여지
요양
기술력
담긴
연휴
신인
못할
250
각자
숙박
마이크
그려
연설
노하우
면세점
로드
윈
단어
변신
심지어
촛불
오프
##의자
시상
다행
서해
fa
소환
##생활
신청서
도서
동양
명회
감각
매주
결코
가시
세제
톱
동참
과감
김정은
##di
##으로
핀
캠퍼스
편집
소년
내정
랭
아시안
##게요
돼지
갈수록
구성원
풀이
최적
비대
피하
도쿄
서부
왜곡
됐으며
후배
원정
정무
고생
학력
끼리
꼴
국당
테이
##포르
1500
그리스
손상
자회사
붕
분할
##ol
합류
에서부터
낮추
리더십
부패
～
中
당원
신축
충전
후속
보일
신임
별표
원유
김용
진영
뜨거운
파트너
nc
예능
하천
##다보
법조
줄어든
거점
##ea
금속
위축
소집
등록금
랜드
베이징
끌어올
기에
거대
베스트
이루어
연관
폭행
탑재
벌였
강릉
명백
상표
소유자
보건복지
##ig
나타난
김기
으십니까
비해서
바르
적립
본회의
지향
금강
2019
용기
배터리
춘천
싱가
싱가포르
대주
증대
탈락
보강
창작
로써
국산
살려
장사
블루
시설물
이민
연패
전무
읍
킹
타워
김치
건설사
차세대
빠진
분담
무용
##dp
포털
부자
몰아
틈
추억
병행
동계
이스
아빠
##현진
금품
여의도
만날
흥미
수백
한층
맞이
현역
美
치르
낙동강
쇼핑몰
칸
온도
끊임
##루션
극대
에이
샌
무너
순수
천억
일선
북부
지대
su
실종
정서
민생
독특
리스크
예선
고리
민감
하수
상속
튀
진화
책정
허리
주석
심장
요지
넥센
주재
격려
듭니다
체포
앞세
체력
##관위
분노
관람객
경위
미칠
이뤄졌
압력
강행
신탁
돌입
세웠
스카
늘어날
여객
게다가
##징금
교통사고
테스트
신선
조화
##가락
남기
생겨
포상
어르
##ng
##받침
김경
한강
어업
##if
못한다
유학
그치
아이폰
병역
단원
엔터
앙
여권
약정
##이익
종이
빌려
재활
땐
정성
라디오
흉
밴드
겹
형평
led
이수
가속
생계
전산
뱅크
원료
만기
반박
인해서
일종
시원
대목
원리
시달
##관계
최다
포괄
부각
타운
원천
판매량
가해
현직
벨트
행진
##브리
실점
빗
항소
195
##le
상식
재직
풍경
##핵화
마켓
비핵화
사찰
뇌물
##미널
뒷받침
##먼지
중계
도덕
개시
조속
어르신
중기
농어촌
##as
청원
분당
버렸
쳐
서초
워낙
선전
각오
촌
추모
스타트
개척
쌍용
태국
청산
옵
이른다
동향
범행
저소득층
부담금
위생
세미
지리
원주
하도
영향력
댄
한류
경관
습관
이견
갤러리
적응
이성
운항
음성
넘겨
강세
라면서
과반
그분
##레인
900
나선다
턱
##너스
이론
무죄
##산시
들어와
통장
김연
전파
간호
##om
경로
공문
뼈
발효
계십니까
무산
상실
복수
무한
중개
전적
뚜렷
에다가
립
지켜보
전후
야간
몰랐
브리핑
미세먼지
양식
작동
필리
주식회사
착용
조용
한마
누군
모터
민영
한국은행
전임
소극
효력
케어
댓
옹
그거
일환
ic
송도
자발
당내
무선
##키지
낭비
특혜
팝
터미널
##나마
드러내
스님
부도
축하
한진
쥐
수탁
패키지
재판소
댐
핸
李
투기
##네시아
정작
성폭력
##뜨리
팽
웅
발달
네이버
임차
섞
빌딩
경찰관
감성
lp
시책
영리
고기
프레
메이크
싫
던지
듀
맞서
주한
드림
흑자
광양
관절
부활
##op
흡수
불거
무관
편지
연승
그렇지만
룩
194
받아들여
방학
가게
억제
마크
위안부
1998
좌우
아베
간다
최순
류현진
중지
겨냥
쫓
항의
블로
문건
1999
호응
순천
유효
##자원
oec
##os
의류
극단
북구
##위원회
oecd
조만
이영
조문
배분
담겨
느낀
##바지
오랫
지역구
고개
건너
덮
최신
##급식
무상급식
돋보
체납
닥
스키
##성장
방통
인턴
태풍
으신
판례
열차
법인세
솔루션
꼼꼼
sm
협동조합
유연
료
##용차
수험
화장실
안동
##번에
부천
##기금
공영
입원
총액
오랫동안
##자부
##저히
고사
창원시
사내
연예인
1997
거뒀
뚫
##은이
##가요
내달
융자
도모
전교
자칫
빠졌
본질
승객
일반인
매니
록
민심
엇
이사회
인연
기온
가맹점
한때
부양
메르스
박수
넘기
명절
상대방
가중
지인
소셜
가질
문구
모니터링
##아내
생략
올바
햇
책임지
하여금
바이러스
셰
재고
신라
조만간
주부
육상
##자치
노총
상품권
챙겨
##로스
나갔
닫
압도
시술
ha
댓글
크루
강경
매립
반성
##ip
드러냈
따져
아카
큐
남구
자국
멕
스파
##제품
##시코
사로
메이크업
연방
입사
푸드
동생
꾼
뒤집
주류
개장
열악
너무나
세액
만화
쉬운
##닉스
세미나
느냐는
박스
자영
실용
공산
포스트
막대
논쟁
챙기
따지
화합
든다
재발
음료
최악
상향
준용
180
꼽힌다
액수
골목
##스토
음주
통행
매도
북미
대해선
선거법
자신감
코스닥
경영자
##디아
측근
소감
조각
땀
클라
주유
임상
중립
기름
룸
패배
후보자
샷
##회계
대대
당분
무릎
대주주
내놨
순이익
션
가산
들려
1980
지방세
분산
붕괴
편입
상한
닭
육군
군데
지내
모은
코드
와이
세탁
들어갈
권익
밀려
몫
ib
애초
목숨
시세
130
왼쪽
일으키
독점
05
종사자
중고
외면
매월
급등
최상
깜짝
게재
레드
지체
구호
중반
합쳐
걸려
환영
근육
##ist
놨
신장
봐도
패턴
야외
흥행
코너
유망
##트리
한마디
동아리
인센
인센티브
보류
##평가
산단
동맹
단가
절실
남양
##발전
이뤄진
새해
장착
과징금
자격증
수성
오피스텔
육아
상영
##싱턴
협업
안타까
누군가
불황
the
마사
유예
상세
마라
##다수
##행위
nh
넘치
유감
##페라
횡령
과잉
멜
지닌
남겨
세수
재미있
두려
조심
##려야
대량
중순
ap
갚
유공
걸음
는다면
##로드
선관위
필리핀
옛날
앞장서
양상
전역
광명
동북아
자라
장려
김광
공세
벼
시가
가요
에겐
sp
##운동
치유
국어
앞선
도대
화이트
추락
냄
계절
자영업
향한
권위
훌륭
평양
사로잡
mou
남용
살아가
노동당
레저
영광
어른
선서
견제
시너지
빵
당분간
사인
농장
생길
장르
덩
한글
세포
그나마
언더
인류
과다
조율
##ctv
대사관
증여
재능
출근
치매
지난주
강좌
위성
선제
발간
라서
이념
휩
##시설
멕시코
cctv
03
전기차
부의
섹
적법
사격
계획서
로스
랭킹
힘입
배포
꼽히
국면
첨부
유행
자식
특유
도대체
타점
돌리
모른다
##am
어떨
프린
스크린
등판
택지
클린
유산
##연히
강도
공방
펼쳤
섭취
워싱턴
##르트
창립
과일
실리
시계
한꺼
110
한꺼번에
주위
해임
imf
수분
즐거
청주
광역시
허브
상주
자제
멸
예결
아쉬움
대국
연다
귀국
gdp
기원
박영
쿼
장식
디자이너
라이프
대지
랩
목포
오페라
포트
은데요
보증금
페이
동남아
##끄러
수시로
증정
##수색
나쁜
사우
거친
ktx
행태
스페
선행
##유산
영세
학년도
비록
복지부
한우
어차
모범
짚
##ve
##마자
##80
이병
나타내
어차피
본선
해경
압수수색
기관장
검진
그야
들이
비치
형제
운영비
롤
붉
달한다
수정안
##ac
##마스
오른쪽
사라지
대립
관리법
##id
감독원
뮤직
##스탄
횟
낫
그야말로
공군
단서
온실
학위
웰
스위스
미소
발목
파일
배달
혈액
코트
줄일
부합
오가
##평양
자사
신종
전직
점심
##직자
단말
헤어
조리
손님
기울이
뻔
기증
청정
*
중재
교정
비디오
우즈
그날
계약서
느라
끄
소문
개관
해안
##들이
확실히
수면
나타냈
##오프
고려대
떠오르
돌아오
흐르
높일
##센터
##연합
세운
며칠
잦
황금
밀양
잠실
응시
파산
수령
타이틀
플래
##온다
톡
아끼
농지
bm
재학
고전
함유
임의
##바이
수위
장악
동포
소홀
저항
##런스
앓
나간
##다리
뒤늦
면담
입구
가깝
지낸
형편
자마자
상시
의정부
홀로
낙찰
보인
##브리드
불량
아기
확신
확립
김민
마땅
집안
공조
시립
구제역
몰리
##셉트
노리
되돌
신화
참고인
시켜야
정통
청탁
tf
리모
지목
메모
바뀐
수강
비하
##리스트
월급
상권
la
의제
내비
자부
티켓
터널
임대료
ict
##대문
실망
연세대
국외
멘토
파기
걸렸
업소
뭉
수천
편의점
유전자
해질
간판
##지능
인공지능
국적
권역
cc
농사
대다수
끊임없이
재판장
회생
당당
접목
주무
입점
진심
한창
꿈꾸
강요
심하
증세
이어서
외국어
인접
였으며
포스
로비
뷰티
헌재
방금
##ps
상용
가볍
처방
별다른
안타깝
멀티
논술
약자
만만
지상파
해체
유공자
당선인
임신
소상
내외
음식점
고장
##개발
떡
##으니
감상
대개
회피
절약
군대
어선
탈출
느꼈
##공항
백신
올바른
마침
접속
슬로
박주
목사
운명
정산
비타
##고속
해법
당선자
##화문
피의자
분과
##ent
이대
터키
쇄신
들어선
##광역
수습
신재
패널
어우
정부안
##다니
##원장
도중
##스턴
##테이너
비행기
공중
거짓말
관찰
찌
널리
방송사
흔히
이의
기법
하도급
균형발전
붙여
재계
건지
명분
밀어
항공사
승점
##로운
수신
환수
직권
감찰
생산량
이해관계
부착
과실
맑
양측
크림
광부
오토
아쉽
심한
스탠
걸어
폴리
lte
엑스포
활력
이분
골드
강남구
전수
우대
사각
비싼
위로
냉장
##거래위
관리자
##실험
북측
불신
##이즈
이산
셋째
1995
유승
여주
등산
119
결심
떠난
사료
에게서
젊은이
번지
과반수
어우러
직장인
국채
##어넣
명목
사용료
선수단
##테크
곁
일찍
##파크
익숙
네티
朴
수차
봐서
마라톤
양보
기성
##em
##시간
중국인
도박
고수
열기
맘
##교통
리스트
보여준다
정회
추산
네티즌
옮기
140
학업
애니
##ri
공업
##데미
정황
사교육
소신
발령
저하
##데이
획기
대여
맞대
승용차
온실가스
멀리
컨테이너
관광지
##머리
염려
아카데미
이혼
답답
월세
주유소
산업은행
##로나
제보
동서
심해
각별
해야지
타율
아라
정유
내주
번역
납득
가벼
김수
제휴
변하
민영화
미친
구나
간편
정세
핵실험
공백
푼
조회
국민은행
산학
에는
고성
보험금
충당
그래요
염두
중독
나아
근처
버린
시나
흔적
프라
갖췄
석탄
연인
수소
스티
##마크
특구
샘
공무
네덜
네덜란드
세출
합계
##그레이드
##od
진지
금년도
##임금
작곡
정면
마주
한두
어떨까
오케
##영향
이뤄질
성립
발매
이슬
추첨
마스터
저작
플라
플랜트
서기
표결
거절
일어난
김병
이끄
타인
눈치
성형
##리지
기상청
커뮤니티
좋아
공주
상수
못지
남아
언론사
공감대
스웨
##거나
가방
용량
엇갈
파주
준수
닿
사물
딜
급속
신상
시트
대한항공
발명
한쪽
동작
보행
나란히
##무성
김대중
인민
소멸
찰
명문
그쪽
고스
여파
상의
드러난
선보인
홍준
##아버지
다름
서장
신발
환급
##지니어
방역
첫날
자립
긴밀
휴양
패러
시상식
가사
##지대
어울리
헬기
횟수
수혜
승계
냄새
원화
연동
색깔
진전
경영진
이스라
##연구
수상자
김지
스튜
종로
##구나
회의록
더블
수년
갱
알아보
단말기
##저스
따른다
지장
et
유죄
대체로
안산
이스라엘
스프
만료
호수
벌어졌
닷
##공정
박원
최우선
정관
이룬
보상금
가축
청렴
##60
친화
안성
적시
둥
국악
관중
부스
출국
명확히
열람
산재
자존
해운대
신동
종결
##나이
비타민
1994
유보
보호법
중부
처지
표지
관료
어쩔
공연장
##금리
집값
먹거리
낯
홍준표
통신사
전철
무더
비결
수차례
##il
면역
락
##관광
해지
계정
유용
##10
동화
인치
구장
신한은행
##ce
강동
주사
탄탄
남겼
불안감
아이돌
모씨
##타운
회전
프라이
근대
똑같이
엘리
장례
걸린
저조
##법인
ka
헬스
##르크
콘셉트
케이스
최경
bmw
여고
전방
이라크
크루즈
모금
##공단
회동
불교
가난
편하
이득
다이어
털어
다를
참모
유관
민사
양자
빈곤
흥국
un
배수
무인
덴
관내
인성
그저
둔화
경유
김연아
좌석
액션
수요자
日
##광역시
캘
인테
성원
개그
전교조
통계청
사연
들어왔
막판
성사
치안
다짐
슛
우울
비싸
소매
벌어진
오류
수원시
송파
산출
이월
##40
시일
바둑
산책
마약
2500
최저임금
배구
뛰어나
억울
수여
##매매
이뤄지지
민자
접근성
mc
어쩌
지불
탑승
##까요
화폐
합작
파티
장병
토크
##렉스
이모
제작진
근절
채워
수록
몰라
경제학
보편
출간
이례
##세서
신부
기업인
가려
수산물
보좌관
총수
채소
무장
국책
궤
재외
이어진
北
##처럼
출제
무력
되찾
##긴다
고의
약물
전선
센서
기피
탕
종사
유가족
폭탄
꽤
인테리어
명소
광화문
##릅니다
김선
보복
##트로
연내
흡연
원회
면밀
그러므로
사망자
1996
만족도
타임스
이겨
커졌
가르치
##ro
스타트업
명성
확률
의상
메달
물어
지역민
태극
장성
운동장
ml
아픔
동결
190
##매김
닮
자리매김
령
열풍
조종
연비
짝
나노
탁월
과시
고조
젖
뛰어넘
태평양
##상부
토요일
음반
출동
세련
만성
스피드
포르
봉사자
지났
양쪽
창고
주심
고쳐
고스란히
속하
반려
쿼터
##본부
원대
응답자
미안
ch
제어
애정
탱
신기
세율
##낸다
불공정
감지
다큐
시나리오
빼앗
최강
##메이션
당기
침몰
재심
독재
겨우
그라
##tv
핫
확고
오프라인
dm
색상
배우자
고속도
패스
쓰이
수송
잠정
오를
가짜
1200
실습
금고
내보
##집니다
야생
채우
1970
어려웠
힐링
피로
외모
단행
벤치
분열
##70
여신
동행
##라리
강정
##버그
##레이션
유적
##셔널
##운전
생생
한가
싼
앞세워
프랜
한양
##시마
일산
린
협박
김정일
부딪
##북도
실명
시비
의석
160
둘러싸
올릴
기숙
채무자
인체
해설
꺼내
위배
00
도출
##업자
위장
댄스
이력
먼지
백악
자재
상사
수자원
쾌적
고속도로
유독
츠
통영
급격히
##출산
민정
##트롤
전월
변호인
당뇨
미분
##물산
원금
부드러
##본다
지경
경보
수색
##el
정년
줄기
식량
##리티
였을
한방
고양시
내려가
시신
맡기
##보험
박성
발레
맛있
이적
대중교통
양극
평범
등등
밸리
에이스
삼성물산
학계
현행법
박지성
stx
직위
싱글
##놀이
내신
붙잡
한국어
김승
sc
##스트라
철수
흙
수목
연상
##스키
as
적당
우유
##피아
일체
이관
자진
인가요
일일
정국
체감
리얼
살해
넘어서
장기간
흰
us
스웨덴
져야
우위
진도
엿
양심
맞춘
반전
거제
통산
행장
끈다
증설
조선일보
아산
행안
구리
검정
당첨
뛰어들
##리케이션
박찬
##외선
채취
lc
입력
드린다
박정희
장난
출원
납세자
고가
패소
요금제
겉
부득
열릴
수확
농성
기쁨
특강
전격
계단
레이스
성장세
핸드
기도
유세
모시
축적
내세우
매진
에코
초등학생
이윤
광산
선보일
검거
##해야
대원
수출입
경인
##입니다
담당관
캔
다룬
히트
무사
만일
마운드
콤
흔들리
일일이
산지
삽
백악관
금연
찾아보
연체
##래도
이석
바꾼
##규모
골든
그곳
거둔
달라지
엔지니어
위해선
보여준
추후
파격
스쿨
교차
총력
접종
난다
오일
기업체
내걸
수장
바꿀
공판
거세
가액
심정
미분양
이럴
돌아왔
영웅
다채
칭찬
실체
권유
간단히
아무래도
##적으로
입국
체인
외곽
감당
가하
저출산
폐업
벌인
낚
교재
부재
검출
지혜
연임
더욱이
게끔
우편
에어컨
다각
체류
##im
돌아온
이뤘
박차
놔
정화
욕심
ebs
군민
휠
들어온
##세포
suv
써야
기하
앞당
of
국회법
##수기
내정자
창구
펼쳐진다
가급
해킹
놓치
그래야
바꿨
스코
창단
타선
성매매
벌여
푸른
트레이
추출
담합
로맨
합성
##풀이
비자
##튜브
여섯
어찌
##요타
주전
김주
배부
모래
매니저
이인
국유
날짜
밀집
미지
지능
한다든지
리서
이슬람
넘어섰
구두
치아
자세히
연평균
등지
난민
대검
견인
씻
바닷
간략
재킷
박종
달했
컨트롤
화해
이원
학대
350
##뉴얼
랄
켜
웨이
굿
제로
문화유산
블로그
인명
생애
장군
대구경
급락
세일
sh
트랙
이태
표창
수명
추격
즐겁
결단
띠
램
정의당
하이닉스
kbo
##북자
화력
탐방
솔직히
##베이
##연대
내각
관계없이
성남시
유인물
해진다
가급적
밭
##ation
유료
이메
소액
경호
으려는
여겨
몇몇
되게
박상
원단
포착
리서치
##십니다
일요일
동아일보
soc
내다
합창
##ls
더군
부적절
희생자
안경
공관
##da
곰
112
중시
방한
다이어트
##아웃
유물
##자유
중소형
칩
소규모
여사
풍성
밝혀졌
프랜차
전설
탈당
고무
잔액
테이블
이메일
청취
뒀
클라우드
즐거움
치료제
##남도
##호텔
제철
매뉴얼
표기
고르
붙이
iot
그랜드
##소시
주연
ar
농도
캡
시달리
차익
마이너스
##제철
##ow
받아들일
누리꾼
바위
력사
럭
터치
커플
예보
스토어
이루어진
시킨다
114
고치
배후
스페셜
이지
솔로
대세
감수
##려서
고대
대륙
하드
김장
##기구
도구
##하나
디젤
안방
글쎄
##티나
위조
볼거리
참석자
냉장고
킬
서양
lcd
올레
롱
##소시엄
컨소시엄
기장
사회단체
남한
도달
도저히
기록물
부득이
공표
퓨
대구경북
살아남
주방
재선
보궐
척추
타입
해산
워터
납입
육박
김형
크다
go
원조
재현
러브
##기지
##us
군부
타결
고백
성폭행
못지않
##먼스
쇠고기
드라이
할아버지
미달
##ti
##범죄
예비비
기쁘
휴직
정시
배럴
채권자
즐겨
##둘러
법상
미루
탐구
이를
배송
##블릿
##서구
##조사
lng
교도
전락
떠났
길이
표면
법칙
윌
별개
##러스터
발탁
자존심
마디
문경
불참
유성
휴게
1992
클러스터
◯
몬
입건
이젠
보입니다
##신문
커질
광복
시켜서
계류
이노
튼
##시스
##욕장
지냈
퍼포
트럭
퍼포먼스
고법
롯데마트
여쭤
아리
홍수
말레이
아메
스카이
101
부령
딩
장수
관심사
01
냐고
스타일링
##ef
##피탈
차입
해수부
실사
운반
193
##널드
저런
##ay
클리
팅
##로이드
타수
##sc
##플러스
학문
인삼
##컨대
경부
모의
약화
수거
##아리
남동
##주얼
##소연
깔끔
추신
태블릿
중산
두루
##기부
동호
퇴진
사법부
쉼
1993
가뭄
메인
혈관
고충
스틸
분배
행사장
일어났
드론
##어났
치과
|
##산지
스튜디오
원자재
양육
##파이
택배
시한
옵션
헤드
반납
손잡
06
아무것
외치
베이스
##진보
시속
vs
선원
일간
화보
추신수
연초
위헌
아니한다
영토
토로
금강산
##십자
시흥
공론
사령관
주고
안드
불펜
농림부
역임
##훈련
박병
사각지대
코레
앵
남긴
결성
전술
170
싸우
태권
관건
문장
안다
합시다
우정
관제
##재단
탈퇴
영원
유전
클래스
바로잡
등재
홈플러스
조속히
후쿠
건국
비준
자아
환승
톡톡
은행장
회부
##90
##허가
니까요
계상
방과
발송
울산시
곱
##마는
으려고
관련자
지원자
백지
치킨
환송
우회
대입
젠
여름철
딴
cd
경감
청춘
풍력
속속
득표
한겨
독려
휴일
맞물
유념
처우
교대
약세
보금
보금자리
##fc
##na
pp
정보원
##to
태어난
다가오
한겨레
법규
손흥
무자
극심
박계
##진보당
미용
전경
지주회사
##포구
손흥민
기울여
였으나
하향
##자유구역
##머스
단정
영구
사면
삼진
두드러
이경
목록
지니
소정
파장
방영
ne
재검
낸다
버디
준다는
일본인
무렵
합법
반기
재임
정해진
갑작
회의실
주고받
온천
치솟
책무
신차
수납
본래
될까
녹화
손가락
화두
얽
맡겨
부위원장
개의
인문학
아픈
코미
교직원
미드
민선
무단
가만
폭염
얼음
믹
어긋
맥락
大
사직
사범
오늘날
뜨겁
부평
숨진
제치
##봐야
빠져나
아닌데
1991
기량
##도어
##로지
버전
태어나
마스크
잠재력
사설
##바람
##경기
뭡
보건소
연일
조지
대치
상자
##배우
뭡니까
기독
시골
테크노
정돈
플라스
하청
시공사
직면
단점
둔다
섰
골라
피아노
회의소
##잖아요
약관
만점
붐
접하
아닌지
고집
텍스
이화
끊이
밀리
떨어질
공격수
파문
남쪽
미뤄
유류
자구
##협회
연이
뽐
잇달
도매
사흘
볼넷
홍성
경사
전시관
증가세
실무자
연구회
즐거운
소폭
마르
골자
ht
시리아
출구
영재
##키스탄
경정
사외
아이스
터뜨
여전
at
퇴출
kcc
닦
강변
박원순
험
내릴
계셨
효성
부의장
터지
사위
자이
외식
마일
해라
대피
노벨
나와서
규격
조류
짙
몽골
가벼운
정정
신약
국경
어치
192
##다란
누릴
잠수
입소
김희
모인
##안전
서버
국군
빨간
녹음
클린턴
예컨대
고마
호평
소원
출력
ss
군산
무서
회원국
아웃도어
교역
낮춰
기적
##워드
프로모
붓
던졌
입금
의왕
##가치
보직
달라진
누르
눈앞
선별
의자
숭
빨라
실리콘
방문객
잉글
일지
침묵
뚝
결혼식
성취
##스토랑
레스토랑
선착
전송
공화국
인쇄
##바이트
조짐
쓰러
##리즘
191
멋진
달아
서점
쏠리
입주자
요약
일가
보낼
연애
더구나
진해
##지노
##처분
가해자
동성
걸맞
민법
─
바쁜
다행히
학급
공작
신흥
사업단
2030
사라졌
아스
연루
걸릴
부임
결의안
주역
대리인
##바닥
프로모션
굵
위대
##유예
꼼꼼히
메일
##저우
합치
판교
찬반
##폴리오
모른
정몽
창업자
자매
04
소모
미쳤
고추
역세
정동
간호사
호의
##생명
자책
기부금
제자
1988
##태프
합격자
숙소
##대리
공모전
재판관
계획안
언제나
상고인
분량
가끔
바깥
대법원장
증명서
펼쳐지
##전력
급감
##벤션
다저스
##릭스
악재
아닐까
차라리
제의
문화재청
공사비
열려
삼성그룹
건설업
##멘트
적성
경품
@
##센트
주름
##세스
폭넓
접어들
조약
컨벤션
룰
##병원
##이크
이어진다
비대위
둬
##무기
국지
기념관
일으킨
발길
정말로
까다
지나가
사학
혈압
녀
하락세
돌봄
동국
구멍
콜라
전이
te
예술가
자외선
영등
참전
최우수
목격
저감
이용객
객실
천재
연안
부추
##si
첼
성숙
장벽
심상
당직
광범
상원
유니폼
재경
박재
출생
퇴근
엄청나
브로
##끄럽
실전
조국
게이트
아티
성범죄
폭스
플라스틱
걸친
릴
나쁘
멈추
사령부
윤석
이진
이어져
##ad
으려면
신생
##니스트
전라
감자
ᄂ
나빠
대리점
조경
대박
발판
렀
도당
데려
통신망
세법
한중
정했
##탄소
##일랜드
##퍼런스
드레스
##덩이
쏟아지
내다봤
정할
##un
음원
녹지
박태
조업
우세
해결책
송금
아르헨
시당
카지노
체중
남해
기숙사
감추
hd
파고
105
##토리
군포
상해
정례
발상
울릉
탈북자
##드라
##높이
신용카드
일제히
정진
리스
뉴타운
##ep
##걸리
교황
##보증
쳤
흘리
활기
휘발
단절
직선
들여다보
##셔츠
인과
to
단식
중앙은행
쉐
계곡
막걸리
이듬
##다임
패러다임
꾀
sw
마비
중형
과천
넉
유상
전염
신년
고액
엄중
출판사
활동비
수협
사모
종종
봐요
광범위
문체
과학자
부근
이목
##아지
엄정
돋보이
외화
라이브
달라졌
or
게시판
매물
가평
인형
출하
트로
아나
방사선
다툼
복용
입맛
소주
〉
버티
꼬집
##고속도로
진행할
낡
원만
기일
차종
소명
대조
경마
캄
컨디션
오브
이듬해
##크스
##포트
쿠폰
선점
주파
배운
자부심
헌신
때로
향하
내장
야기
컷
이쪽
배임
그해
불렀
##여금
스킨
라인업
자치구
언니
음악회
가져가
모드
거쳐서
던데
장애인
날아
응용
벅
병사
도우
타협
부러
성주
을까요
눌
##인드
늘렸
달랐
부드러운
강렬
싹
수긍
공예
##스레
이순
풀어
임대차
한은
코미디
##밀리
커다란
민속
훔
아랍
진압
쪼
모이
각계
겨울철
통로
불출
mv
종편
굽
틱
다지
알파
합산
여비
지회
걸림
스러워
아름답
북쪽
바퀴
르노
##리포
바쁘
##바다
뜬
대국민
잡지
환상
해병
##일으
불러일으
이양
재검토
벤츠
서둘러
범인
오버
차등
들어간다
부가가치
입체
줄어드
교감
펼칠
갓
인지도
악기
퇴임
고구
끓
장인
박지원
트레
떠올랐
전신
성희
도요타
장단
늘릴
하나하나
텃
새겨
외교통
피상
입단
선대
원격
신혼
의료진
역점
사용자
해역
포상금
여대
지형
불법행위
믿음
##싸움
##미터
가져오
##ap
커버
일어날
로켓
걸림돌
혼합
기술원
개원
##ae
##랑이
꾸며
전문점
성추
조원
음식물
착한
흠
주어
##먼트
스펙
습지
##걸음
온갖
##가운
##더스
배추
〈
전처
고부
사명
얇
나타날
##비드
감세
손쉽
전일
기독교
소금
항소심
##천군
전사
악용
되풀이
머니
강진
안녕
박인
##철도
정전
여력
심도
예년
수비수
파생
워크숍
결함
성추행
z
페어
성희롱
궁극
토양
턴
성별
한식
ii
각광
박진
한참
유튜브
체육회
etf
누락
욕구
갯
##ch
소나무
##드립니다
저해
공로
##어버
추위
해수욕장
무너지
##면적
폭로
김천
아름다움
무척
역설
공구
카운
라이트
증원
과열
1987
후유
응모
신다면
강력히
종일
사옥
지붕
재편
줄였
어릴
버려
독립성
약품
유네
동점
웬
##감치
평론
##찌감치
함양
대책위
##ut
도널드
파급
대표자
소송법
유의
수료
강수
중진
고령화
동문
좌파
하원
금방
지문
친절
어민
급수
바이어
오디션
잉글랜드
핑크
중심지
복권
102
키워드
유네스코
이현
제작사
##시효
##led
당국자
정립
제네
경연
중학생
서초구
치른
석면
가처분
##대리인
모양새
##대교
강국
포도
고등학생
소방서
한시
이집
티셔츠
1300
이집트
대수
평일
김문
##가루
병력
추계
팔리
베를
언론인
한국전력
태세
방북
특이
##가족
주축
지켰
기념식
거꾸
수련
머물렀
물러나
타석
디스크
알렸
꾸려
단백
동반성
터져
수익금
1989
##스팅
한눈
양당
컬렉
피할
메모리
련
##톨릭
재래
병무
##퇴근
이만
법무법인
농수
입양
프리미어
감기
크로스
발병
발부
부풀
화상
워킹
코오
1960
계란
어두
여인
비로
on
놀랐
상관없이
끌어올리
수감
언스
직구
사형
##타인
마찰
대우건설
넓히
살균
차선
버락
싸이
코오롱
행자부
거꾸로
탐사
강호
영주
송전
이따
당사
취득세
이색
품종
이뤄지고
낙하
형상
dj
체질
농약
특사
연소
따라가
맞대결
이뤄지는
##um
밀착
후임
원작
레인
입수
무형
무안
필름
탄압
형법
허락
##주택
살짝
장거리
솜
단호
핵무기
실물
조형
직급
당황
장부
캠핑
권단
남아공
이송
세이
잔치
##ir
미비
쿨
으리
아티스트
합참
거래법
김명
머무
대략
현수
수법
변함
부리
검역
권영
권장
공존
긴장감
공립
당진
금전
박용
신청자
중증
증자
좌절
##들여
인디
챔피언십
cg
필드
ꠚ
주권
##ver
호재
cn
아세
술부
살림
제동
##만금
##외과
날개
잣
심의회
나눈
몸매
비닐
해변
꼬리
ms
하남
an
미미
덤
의대
##ds
야구장
넘겼
내게
떠올리
숨겨
갈라
##워하
속개
샀
대교
출퇴근
##테랑
산악
쇼트
가톨릭
나뉘
수호
넓혀
금요일
장터
일찌감치
농축
vr
108
그루
눈높이
압축
이창
결과물
대덕
스윙
알선
사업주
불용
양평
든든
상수도
텃밭
새만금
보람
재량
포수
우호
사관
##ity
김창
거액
승마
내세워
도로공사
모순
테마파크
압류
수탁자
취업자
참으로
깃
신지
계약직
시진
동탄
유선
드물
은폐
후반기
원산지
유럽연합
fif
취할
퇴직금
유무
줄줄
설사
푸르
변제
플로
사소
러닝
유혹
후원금
수량
지켜야
분권
pb
임하
되살
널
까닭
이식
##엑스
악취
라기
애국
본점
호조
메디
난방
빼놓
##잡이
김준
학점
감리
햄
도정
양형
손꼽
발라
해피
놓여
상습
gb
반해
지지자
초고
저기
직결
헐
이광
거쳐야
##레이크
아일랜드
##여행
변형
모듈
치명
특집
아니요
##드럽
이준
관리비
좋아하
종업
부속
닷컴
픽
드릴게요
할리
일명
교통안전
침대
fifa
안전사고
##운용
단백질
조합장
사양
예의
홍삼
줍
부결
외고
해방
##고사
빛나
변론
접한
귀농
스리
간격
그라운드
일수록
유가증권
##멘터리
대항
비극
가세
##ur
산불
용이
내세운
포부
lpga
##tp
적십자
부드럽
진동
산소
##날레
잭
연차
사임
신청인
전성
심층
숙제
안보리
정교
약사
탈모
오리온
집행부
08
휘발유
어음
사용량
본연
상선
##ter
오세
시진핑
던져
헤지
돌아보
이라도
모를
내실
##치기
탱크
베테랑
밀어붙
##의사
계파
축사
달렸
신원
지방분
향기
es
고심
교섭단체
면서도
인선
집중력
09
주파수
김한
지나친
동아시아
캐주얼
國
반입
정선
단단
다스
##두리
캐스팅
고품
서서
대표단
환원
am
체전
실세
지하수
##사스
가져야
나주
제이
종업원
전단
대림
부탁드리
사무국
강자
캘리포
메가
회사채
응하
격리
강해
월요일
실감
장미
세이브
로드맵
골퍼
브라운
아쉬운
갱신
세단
본회
간절
발족
양수
민중
취향
유방
노르
##ob
가파
루수
운수
약국
115
성동
외신
들어올
자질
결승전
재즈
##시경
할당
##라이트
신영
거품
주공
신사
찾아오
기운
##유럽
리콜
농단
일기
판로
잇따르
양호
띈
헛
1600
포지
노트북
어야지
버튼
450
##워서
편견
자산운용
텍사스
처한
밀접
조선소
오사
석사
증서
차트
고양이
여수시
##수지
가꾸
스톱
정문
믹스
적금
속기
슈팅
취재진
에버
##루미
고래
##평균
비축
##연맹
공안
호르
노란
양질
국제공항
공지
한숨
상설
##추어
휩싸
법학
신성
기득
이대로
키즈
생일
렌즈
조망
##타르
전문의
성균
불행
홀딩
성균관
장마
스프링
산자부
1800
주저
퍼시
장시간
경희
셔도
人
##동원
약한
구인
회복세
백두
황제
내륙
부수
질주
##테일
놀라운
둘러보
우량
거듭나
요령
##부르크
배울
후퇴
남미
펠
봉투
항로
팽팽
영동
낚시
약점
테니스
랜
##일리
유포
##두르
본보
깨달
베를린
싣
시크
먹이
103
야드
조별
연구자
##프리
노숙
훌쩍
성질
연고
컬렉션
은가
경전
자본금
소아
후유증
증후
잡혀
뉴질
우체
뉴질랜드
보태
계승
언젠
꿀
백제
찾아내
국공
바지
공대
김인
색다른
여가
해져
文
소스
바르셀
##예산
db
제국
쉼터
납치
가까워
문항
3500
평창동
그릇
함정
##운서
구석
아나운서
외환은행
민간단체
비트
나눴
토종
아마추어
시집
서비스업
침수
태안
구별
##야구
상급
알뜰
##권력
쉴
이루어질
선명
미국인
운임
측은
##방송
계급
문명
125
원동
끌려
불꽃
잘라
소니
펼친다
부칙
개개
360
증후군
순차
##옵니다
퍼시픽
노화
미얀
해온
닉
공보
직속
휴업
우울증
패밀리
리바
역동
낙후
이야말로
취해
저질
유대
파행
윗
적폐
장교
끌어들
사라진
별명
포토
제조사
슬로건
남양주
다면서
바꿔야
들리
퀴
조현
센트
남짓
차분
매번
검사장
물고기
충실히
억지
구비
최장
테일
게이
논평
##총액
시가총액
심포
잡히
명동
내국
연면적
韓
이룰
##빨리
중년
매경
승소
여행사
##승환
간주
김일
한동안
줘서
탈세
아리랑
드래
mvp
저지른
##디움
ls
올라오
가만히
경향신문
구름
자본주의
투구
단기간
》
ad
1400
파라
신조
영농
생긴다
아사
《
##이자
걸쳐서
##수증
tp
서서히
##ts
시내버스
주먹
전향
집행유예
111
##제한
##예술
##이팅
시군
도래
묘사
필지
220
승강
총무
남측
동대문
예우
유기농
평론가
베르
한결
선보여
뺀
살피
여왕
순찰
민관
의료비
mg
넘어선
도시락
느낀다
사이즈
복제
최재
##나타
온다
×
닝
개인전
tvn
홀딩스
입대
글자
정직
구사
개막전
구경
학사
##키퍼
왕복
마인드
렉
골키퍼
죽이
웨어
지청
종로구
규탄
연중
썰
양주
교복
유재
104
됐으나
좀처럼
안타까운
리라고
시멘트
달콤
전경련
선장
부응
##셀러
편법
리드
본다면
매칭
일곱
리라
임진
파손
괴롭
언젠가
데리
##노총
한라
현수막
각지
마늘
불어넣
갑작스
접전
기차
팜
부끄러
wh
##어져
독립운동
더러
##슬러
07
cbs
공매
이은
기밀
모발
레이저
ex
김윤
차명
해병대
출연금
oled
##티지
힙
선착순
로스쿨
이완
전시장
박탈
프로세스
조달청
지리산
회화
띈다
프레스
세탁기
바뀔
##베이터
사표
풀리
기다려
최경환
노사정
실은
240
##버트
면모
##보드
원로
##연구원
총생
느냐고
공법
직영
베이비
송영
뜯
모호
이장
배기
##코올
실버
돌풍
서정
분포
남다른
들어설
닛
외관
찾아볼
전진
관광공사
으론
106
떨어진다
po
동상
여서는
산행
수직
##자치부
그만두
일으켰
피겨
블라
부시
줄줄이
인플
예술인
dmz
첩
임차인
쌓여
nll
원서
오름
이끈
토끼
수첩
##크리트
섹시
dna
건가요
특보
셔츠
반사
사생활
원형
의구
작곡가
으세요
교도소
구로
소식통
모형
부두
예매
스승
던진
수성구
염증
정우
한자
##공원
부시장
대충
궁금증
##에이
결선
결실
충원
##전지
##이도
부를
오락
김학
##엔날레
옴
강기
##민주
슬픔
순회
사무처
##습기
진작
관세청
로마
트레이드
강전
취미
콘크리트
소각
기호
몰래
cp
샵
낙관
스트라이
맞붙
거창
갇
동두
물려
주상
총생산
횡단
방사능
의구심
전작
피크
다름없
넉넉
의외
두려움
꽂
강성
스케이팅
##ge
불명
임종
호르몬
사냥
##교부
한옥
##퇴직
프레임
##필더
미드필더
근접
시국
극히
보름
pr
지음
ec
무거운
줄곧
만찬
넘긴
##hd
##데스
일감
거래량
거둘
경영학
추이
폐수
상봉
어학
##곡동
질타
에프
외상
건네
반하
관서
면밀히
##고리
어쩌면
웨딩
흩
제반
루타
사자
미얀마
작물
여배우
기동
잎
황당
달라질
개량
입주민
치밀
##데이트
구조물
##어리
후회
생리
다투
광교
하동
갈아
영산
제압
성장률
비로소
결집
리버
##사이
도장
국익
교육비
짐작
신고자
일본군
불복
여행객
현대제철
전례
알코올
아마존
내려오
강당
책상
키운
업데이트
##88
모비스
오랜만
cs
세입자
하버
주춤
업적
산림청
107
##월드
자택
환호
사우디
거쳤
##르기
조립
미터
마이클
튼튼
국제기구
항구
이산화
막상
영문
전투기
리우
생산자
대권
재수
저널
할리우드
가라
악영향
킨
피력
이재용
##ie
安
검찰청
보선
##어로
파란
낙하산
매트
라이벌
연기자
##비전
통폐
은지
목동
마진
도망
증폭
관해
중고차
##내리
미네
속한
개막식
피트
의거
2022
실수요
아세안
천문
대명
선동
스런
189
학자금
배워
추측
앤드
故
옮겼
증축
미팅
감염병
前
마음대로
표본
원상
엽
소설가
창당
와중
편한
감싸
교양
##주군
겹치
미션
##년층
박경
림
uae
뻗
요법
##기술
키스
##사관
첨가
반값
##무실
시동
돔
단과
무분
향토
펑
##퍼니
초콜
°
전도
##상수
성금
생선
음주운전
호전
정액
1100
옥상
유서
승격
약해
우연히
유한
존속
오직
서브
교부금
따돌
고흥
이스트
칠레
pga
전동
기자재
조처
보물
드려
귀속
사거리
가져올
오산
수영장
가늠
성과급
결재
쓴다
##투자
109
新
잔여
욕망
통폐합
비춰
경신
취업률
송파구
세균
이산가족
아모
궤도
들어와서
치우
가담
칼럼
##릿수
가죽
울진
지킬
일련
##벌이
필자
배웠
찜
달린
출납
잔디
숨지
검장
##조리
인권위
타이거
폭락
우드
스태프
대두
전대
공교육
##트라
조선업
약식
고는
각호
당과
##클럽
하얀
123
유나이
김석
철폐
집어넣
모자라
정형
유나이티
컴백
국도
오로지
올스타
환산
미생
강북
127
jt
구급
아무튼
스캔
타깃
몰라도
인출
호흡기
상황실
멍
안겨
품격
만전
국한
단연
미스터
알루미
준하
어촌
반짝
컴퍼니
닥터
이길
적격
마침내
한양대
230
책임감
털어놨
통신부
인허가
밝힐
유로존
공채
카타르
김관
편향
문화원
오빠
방산
초콜릿
위력
교훈
펌
오사카
문화부
수반
합당
##희정
포천
개개인
한복
보석
기업가
##아이
봇
십니다
ioc
개교
개조
뜨거
몰렸
재경부
상하이
con
pl
담임
산다
##언스
히어로
최후
엉뚱
곤충
잔류
공통점
자산관리
힘쓰
펄
##몬드
미스
##축구
전임자
레이더
필터
##영향평가
내면
마사회
변명
알레
속초
##구니
과학부
설득력
양승
113
http
##둥이
사령탑
##임스
이바지
펼친
연수원
자활
경쟁사
인조
##박스
잣대
획정
##커스
웅진
퇴장
집필
식민
원피스
뭔지
호랑이
입술
##삼성
미진
호기심
구자
내세웠
김세
전세금
판문
을수록
한인
부산대
저탄소
단편
휩쓸
스타디움
인종
깨닫
총체
본청
##세서리
간섭
살아나
소망
pm
관례
후진
고위급
베네
르노삼성
젤
돌아와
낯선
##용수
박준
특급
정자
자연환경
조장
엮
시위대
통치
이강
고고
대전시
진료비
접대
##소송
##ess
쑥
##루엔
진통
##플레이션
승무원
총기
후쿠시마
##난다
로선
보습
섬세
##수원
리베
취한
##바겐
사운드
카카오톡
토토
피자
공휴
당뇨병
알루미늄
##바꿈
동메달
그램
그래픽
ks
해선
다녔
이치
환매
상류
일조
##ba
남경
매몰
kdi
꼽혔
포르투
태극기
아시아나
역학
생활비
축산물
꽉
각서
명심
항쟁
오스트
냉동
기용
승차
자정
세븐
##구리
##어야
구직자
대출금
지부장
맞물려
##테이션
다릅니다
대란
지질
리듬
제대
##체육
청계
향수
##pga
주어진
급하
기세
사제
분장
고소득
재차
캄보
덴마크
##art
막내
신안
##리안
##부진
be
els
우체국
신념
날리
도우미
보호자
##어날
소독
이뤄져야
여학생
##금속
생성
교보
퍼지
유수
쭉
경색
개그맨
##사태
조영
연구비
인양
총량
벚
탈바꿈
##두환
벌칙
##오스
광물
실종자
가칭
##기에
조사단
썩
토목
용인시
제임스
액세서리
때리
현저히
##내셔널
135
승률
폭스바겐
파도
합창단
##다나
##우리
중국어
비료
심혈
목재
탔
크로
놀이터
오른다
은메달
cf
▼
##그러
김효
미수
석유공사
정점
구미시
자생
대동
분단
판문점
교향
##금융
아우르
넘쳐
##난히
영종
2021
lpg
캄보디아
바이올
bn
인제
논지
당정
출고
존재감
기종
전보
손학
실업자
농수산물
공용
훈장
목욕
kd
잃어버
신항
지휘자
iptv
브레이크
노고
도마
건교부
##여대
석방
일부러
공휴일
발걸음
대역
싱크
급변
이한
방사성
돌아갔
경산
기어
남산
양대
무분별
서원
이계
한상
동반자
아닌가요
##지오
대포
무지
직종
교육장
가르쳐
이겼
for
법제처
키울
##걸이
기강
희귀
태백
##베이션
수돗
##폭력
후손
##경찰
대의원
전복
장래
의결권
꼴찌
혐오
적절히
착각
절대로
마니아
주시
통역
해치
숍
항암
가미
이화여대
고비
꼼수
장례식
판타
1986
퀸
소홀히
표방
특색
비위
영남대
열흘
갯벌
촉촉
니다
발표회
슬라이
구민
##eb
신보
글씨
정답
날카
나와야
경희대
준다고
울리
엘리트
##공항공사
수돗물
담화
무실
광저우
##스카
구원
대본
##바라
##커녕
탐색
점프
화성시
나타난다
크리
구할
관념
월평균
넷째
리바운드
대내
들어선다
업무상
정조
외출
페널
lig
리비아
벨기에
경합
1950
착오
법원장
다문화
관악
불린다
##신저
김혜
오렌
얹
본지
정재
회의장
간직
##합니다
기술자
가령
추상
117
자릿수
장외
공룡
포스터
트래
걸린다
영하
다중
대접
송구
신비
◈
지지층
두께
##셔리
럭셔리
파운드
스터
방재
지성
##갑니다
김제
사본
실수요자
승자
풋
오마
주당
남도
유정
##널리스트
세관
셰프
흘러나
벗어난
포지션
표출
rp
거래일
약하
##ul
뒤따
파병
김도
처리장
시뮬
나옵니다
오너
성실히
증여세
보안법
핀테크
기르
넥슨
##ice
경기력
올라온
묘지
일리
삼성증권
강점기
이공
치즈
인계
임시회
전염병
연전
각급
숨졌
핏
양념
였음
우아
고령자
##런트
애매
노원
전념
토마
##사항
##루엔자
신속히
오렌지
##느리
장려금
자위
jtbc
더위
시연
##겨운
##사실
##퀘어
가드
확진
일행
이청
동산
됐었
유진
신학
아마도
##마켓
##통일
관문
여객선
체조
김원
천주
오찬
##af
os
관철
단골
개년
시드
익명
탐지
아무개
##프리카
다뤄
숨기
간첩
입상
성당
현명
기준치
려다
국공립
##망이
빠질
행운
오인
메카
이철
떠오른
안쪽
챙긴
다이아
제자리
청도
강판
드라이브
기리
돌보
할까요
자책점
비유
내다보
빌리
훈령
불거진
서강
회로
116
애인
다가가
정가
뛴
재협
시카
편중
동창
벌인다
입소문
분수
나눌
소용
조종사
128
초보
도급
계약금
돌아갈
흑인
텀
천천
정장
wto
다운로드
남대
pf
대졸
경륜
놓인
잡아
내줬
상거래
의논
민국
니스
##가정
기간제
경쟁자
효능
##약청
식약청
##재산
유병
연탄
적혀
드라이버
대인
신작
들으
영화관
웹툰
톡톡히
복선
가습기
분주
편익
보행자
김해시
부하
내비쳤
원동력
고작
봉쇄
##오르
you
선호도
근간
후기
특산물
웰빙
할수록
kor
욕설
코엑스
성명서
118
도보
4500
트리플
김은
한발
마사지
##모비스
121
뺏
민간인
코어
무겁
절망
집착
해저
과자
세심
천천히
간소
로고
멘토링
막강
사채
보드
노릇
세로
사육
서해안
털어놓
연쇄
if
랜드마크
모욕
보호구역
지갑
지우
용의자
종자
임박
노르웨이
##베이스
부산항
눈빛
근원
주된
드러낸
1700
막바지
甲
어리
벌일
계명
실상
견디
불허
개발자
요트
특기
원점
구직
김우
클릭
홈경기
국무부
사이클
전통문화
활발히
일당
아모레
재밌
##작물
##어졌
키웠
어두운
그레이
퀄
보이스
각도
윤상
몰입
잠수함
만주
혼인
퍼센트
예수
복직
로맨스
부른
맞췄
솟
이온
순방
템
포드
오지
수제
##레이터
122
톰
포르투갈
새끼
마드리
국사
넘나
소방관
방제
려던
침투
염색
##징계
전기금
가명
대위
근무자
교량
##순환
추궁
md
교내
피우
아우디
평상
샐
삼척
천장
외형
안전망
손자
##디스
사들
능동
어긋나
명실
부른다
개회
하버드
찾아온
마드리드
책자
최정
힙합
진정한
돼지고기
다변
아메리카
##패드
상여금
휴게소
동지
bo
후보지
국수
##백화점
제회
영혼
파동
들여다
인수위
거둬
거실
포항시
혈세
배척
이시
앞섰
황사
유역
들으면
올라갔
영덕
워치
중앙선
충주
워크아웃
통학
유신
서남
모터쇼
##정동
031
유쾌
박모
창문
수월
제소
##마다
남북한
이건희
절박
보호관
박세
함량
나흘
한다며
##현실
서귀
복사
132
기인
놈
중위
bb
내려놓
저금리
##여겨
치렀
가라앉
경전철
##체스터
장타
문예
교부세
눈여겨
gt
각기
당론
경상북도
지킴
라고요
여쭙
##co
세밀
소급
늘어난다
길러
찾아와
무작
국립대
올라왔
kl
특권
기념사업
##44
익히
담장
vip
줄기세포
무궁
마음껏
용병
종가
옮긴
의향
한파
280
번영
데이트
평가전
210
미성
주지
수다
제법
환불
##마킹
식별
박태환
외교관
로펌
##는데
기탁
벤치마킹
반갑
브루
사막
비박
점령
경량
임야
시력
연주자
군청
sta
입문
병합
지친
ep
가로막
##웍스
##란시
국영
김유
후문
정류
심야
근저
문단
전가
##그라
서귀포
공권력
반문
쏟아졌
이세
내밀
에피
가혹
경청
野
##란시스코
조서
_
선교
국기
팬츠
방송인
발전기
부유
살린
이호
귀여
화순
미지수
양도세
메신저
##로그
kW
연준
표절
아저
최영
스노
so
달러화
축물
적잖
순조
道
주니어
침입
##게임
아저씨
관리관
화가
예쁜
ibk
체불
돌렸
출품
견학
첼시
##영장
뒤지
영천
미혼
월간
되돌아
반출
##bm
영수증
##캐피탈
재테크
재적
용서
소품
적힌
올라갈
할게요
##어붙
신뢰도
일으킬
삐
차액
no
##내기
식구
유래
명부
공신
선체
ko
상법
취했
계세요
김신
박기
요하
기점
터뜨렸
경로당
야심
비법
잖아
長
##네마
세분
구형
도리
폴란드
출입국
하드웨어
보리
여도
수중
계십니다
게스트
헌혈
##학자
270
분담금
신도
푸틴
피스
매립지
사죄
쏘나타
맛집
웬만
나비
이순신
공평
330
철새
##ca
물으
더군요
턱없이
심재
성찰
냉각
뱃
써서
꿰
품위
음모
중남
커진
재협상
조용히
반격
소진
수신료
관청
학교장
에도
외무
전두환
상응
##시험
##텍스
열쇠
##벨트
##타이
으라
표적
로열
실증
그림자
##식간
山
##무사
상점
스코어
유흥
우연
영유
kot
벡
활짝
##ine
★
##정부
133
빈번
예정자
무더위
방출
안전성
750
증강
우산
비서실
메리
백성
1985
여정
양양
링크
대타
전입
치중
엔트리
절제
속기록
정주
벚꽃
의존도
코칭
##매점
##네스
물자
매직
바디
공산당
기미
핀란드
속출
##원지
어우러진
##부상
천주교
일수
보성
플레이어
##77
##저기
문턱
현저
렀다
손길
촉발
누설
아십니까
여기저기
겹쳐
스케줄
보컬
벅스
보령
ng
밥상
친분
맨체스터
디테일
적립금
무늬
의성
첫해
빼돌
무서운
미주
##워했
용액
혼선
드디어
문화예술
실기
결핵
아홉
양사
##마을
##국적
어지
미처
브로커
그쳐
스폰
아니할
아이언
신곡
행정관
145
정제
치를
대성
점진
경협
부친
##덱스
스테이트
자의
원한다
경미
인격
허물
원본
소재지
롯데월드
##지엄
심포지엄
동호회
관사
기둥
다닐
높인
365
일몰
마구
물결
##트랙
본문
긴축
열매
조상
증빙
##사리
우승자
비단
전반기
농담
공짜
텔레비전
물동
병원장
잡힌
마력
보답
배드
한하
데이비드
다거나
금산
동굴
볼트
東
오만
후생
케이블카
산회
모였
옹호
찔
신나
시야
쿠바
ac
본관
친근
##가리
크라
삼국
##져서
진이
지루
파이낸
껍
자민
126
188
만끽
mba
학살
##관리본부
인자
이면
취항
지면
고립
그렸
올린다
샴
오키
올라와
개진
##와이
샌프
더라면
순식간
김미
M
염원
조그
출처
se
세울
외래
##스틱
평면
분해
유착
김남
거주자
방류
무실점
종북
독주
즉석
환기
cl
당권
결손
인텔
옥수
악순환
주어지
계량
챌
##기계
송달
강서구
신문사
불출마
기획사
창설
통행료
근저당
푹
예탁
상회
더군다나
320
##고루
터진
서산
충성
다고요
머릿
초록
분식
곡물
쪼개
하자
동쪽
안면
씨티
들어섰
감사관
##플렉스
무덤
면역력
박민
달래
모험
op
구동
정운
변했
영감
했잖아요
조건부
길거리
헝
탄도
특허청
갑니다
회고
용납
반경
##부분
대지진
어라
##부인
다자
사정관
챙겼
얼리
이뤄져
현대건설
토마토
고품질
##소드
시그
260
누나
아쿠
##승부
윌리
도자기
빠져나가
영위
나뉜
세워야
아토
초교
다듬
살릴
접경
답니다
파인
이리
트라
중앙당
드문
위례
##암동
김두
시어
불거지
##버리
물동량
ma
시카고
오토바이
그늘
전망대
병무청
강령
용적
##격수
오션
쌓이
우크
십사
장난감
쏟아져
수변
온몸
골고루
이래서
공과
장담
그친
앵커
라스
모은다
전성기
##진흥
특단
203
도둑
초안
무능
징후
근린
말라
##경제
회차
노조원
앞뒤
옥션
배신
여행지
추운
외주
차림
스퀘어
세정
건축법
히로
깔려
막말
안양시
민원인
도루
업주
처하
영예
144
성산
##야마
신형
뮤지션
무섭
앞당겨
국과
접할
거칠
최태
로맨틱
입장권
후계
136
감옥
당할
기수
전병
서거
익스
##티아
현물
박희
노령
선비
서술
용의
##쿠버
텐트
##미안
으십니다
반찬
김일성
관절염
일회
단체전
복리
##티스
달성군
##스트리트
몰아주
박영선
면책
양파
상륙
##시대
##맞이
차려
소치
tk
마술
심상정
올라섰
두피
청라
시니어
만장
특례법
부설
친정
다든지
##iv
폐해
유저
틀림
크레인
삼각
레알
알릴
산업체
조형물
##나와
독성
내보내
##우병
세계인
호가
129
en
쓰여
한약
124
날렸
떠넘
제청
장남
당첨자
메이커
틴
사행
끝날
트레이닝
##체어
평정
스피커
一
달해
재산세
스폰서
분비
명백히
혼잡
외야
초선
연정
##tn
괴물
단다
간식
안주
##75
든가
휠체어
##근무
##수단
통사
방지법
우상
bl
독거
피지
정현
기권
##ok
중남미
찢
둘레
웍스
준설
하계
람
정해져
##린다는
해남
영등포
현대인
그랑
과거사
담겼
전승
챌린
권오
자궁
도주
연산
연평도
##all
암호
대관
보고회
맥스
계수
토너
##배상
高
분실
차체
##모직
제일모직
예쁘
반장
##스테
곡선
기다렸
천연가스
씁
흥분
예민
추징
냉정
최상위
여태
계약자
점용
인위
부서장
쥬
성수기
시킨다는
은평
볶
원리금
스캔들
줌
위증
급성장
맞춰서
일간지
처해
방송법
지름
##나물
상반
재정법
##th
호황
제철소
패스트
가든
담아
전광
전한
점거
요새
슈퍼마켓
미생물
실책
##현동
와이파이
부적합
판결문
주범
사이드
소개서
대내외
울릉도
165
맵
새삼
퍼져
##중근
##og
##행사
끼치
홍익
실크
딸기
어색
획단
비관
윈도
뱅킹
가솔
##센스
옥외
##세이
거북
중장
정경
1982
옐
마포구
초월
언덕
택했
개동
주입
포용
입안
칠곡
내몰
고영
mw
무언
햇볕
퀴즈
스러움
전장
의견서
155
보험업
뽀
손목
저마다
찾아왔
터뜨리
##취업
다가왔
벽화
물의
벌어질
여중
보정
척결
분향
절충
##부로
신진
그럽
파출
鄭
끝났
##레나
하차
이효
정준
니트
부지사
##시티
낭만
수역
송이
가져왔
탁구
직책
한다든가
농작물
파키스탄
중기청
직거래
##키아
수해
태우
황우
문광
正
##은희
서쪽
에릭
안산시
제작비
##제당
백만
한껏
다국적
아이콘
방수
##ib
아이패드
카리스
손해배상
낮췄
ds
단풍
에피소드
제일제당
무더기
중화
세션
터졌
대용
가전제품
id
하수도
간다는
치료법
팔렸
곤두
##비치
힐러리
카라
돌려주
수요일
예치
에버랜드
공수
쌓인
수임
함부로
감청
센트럴
개표
가솔린
고속철
제약사
이재명
거침
em
기류
헨
민병
나마
케이크
치가
좁혀
re
다닌
몰두
항해
하소연
아이파크
배석
##팩트
##and
행하
느껴진다
웃돌
##퍼드
심플
튜
공정성
새우
홍대
멈춰
지지부진
독창
자란
주머니
입장료
카리스마
배움
반포
매개
루이스
동등
화질
1984
홍명
갖춰야
활동가
앰
모토
벌금형
윤곽
일으켜
주어진다
사업소
br
거머
참여연대
삽입
나이트
거울
원도
말소
창의력
용수
핑계
양궁
급기
방대
뷔
흉기
##진구
묵묵
크레
청송
계실
이규
소비세
어느새
경제성장
보스
인천항
對
##라비아
소련
조계
비방
인척
말미
해군기지
꺼리
카이
잇단
산책로
사교육비
##호영
정통부
나간다
고로
전법
거센
예견
지킨
부담감
타이밍
동대
햇살
##자재
이동국
##드름
살포
군부대
늦추
가산점
고난
박인비
서열
pk
또래
집합
최성
보스턴
##계약
여덟
중도금
##리시
양현
고공
농심
셀프
와의
토의
##퓰리즘
캐피탈
저성장
화랑
손익
따내
##도전
판도
번복
치러진
조직법
엇갈리
보일러
살균제
되새
개발비
계통
완주
국물
서적
186
인방
1900
무한도전
비엔날레
건국대
거취
##45
직격
사우디아
씨앗
획관
충무
아이스크
출루
할부
하단
만난다
##반대
정계
똑똑
군단
과언
이근
어려우
으니까요
특약
내셔널
전량
실린
##게이션
평준
원사
고질
문인
저수지
재취업
uhd
줄인
##15
인맥
아연
막혀
콘퍼런스
현대그룹
국유재산
윤종
떨어뜨
159
설악
이범
클리닉
##드라마
윌리엄
자아냈
설탕
음란
견본
기왕
상상력
적대
항고
하이트
울주군
그대
유망주
봉화
호스
남매
제안서
장이
개도
양천
화백
영도
일축
운하
수산업
방화
미르
동감
・
쫓겨
동월
밀어붙이
몰린
돌연
플라자
한몫
슬림
he
샌드
##기사
포퓰리즘
박선
러블
절벽
회상
코믹
카르
브로드
비스
fr
##페이
릴레이
137
광우병
온난
페르
급속히
마일리지
로버트
포격
범죄자
반론
북방
과감히
방면
치른다
중량
최하
허술
車
해외여행
필립
tr
자르
수출액
물음
일률
청구인
개점
포진
##타리
안무
창녕
cnn
배관
살아온
##뉴스
주총
습득
선거인
급한
노골
피싱
##국수
고분
각별히
아울렛
그칠
보유자
폐막
청량
메트로
제네시스
색소
킥
수퍼
##ers
왕자
냐고요
레벨
부끄럽
##투리
벙
요구사항
특가
폭포
대왕
##임자
통관
고졸
서한
우뚝
알레르기
임산
맛볼
달서구
##김없이
청담
##ex
행렬
늑
af
빌라
##악단
##어내
클렌
만든다
ed
난항
스러웠
ct
박명
효자
구해
빅뱅
성적표
전지훈련
up
우즈베
저렇게
음향
제때
거장
분뇨
롬
모처럼
수식
열망
윤석민
차입금
떴
폭우
##화물
ro
독감
##25
급급
##활약
진보신
트로피
가압
방조
보험법
바우
바보
연구실
社
ytn
목요일
취임식
머물러
하여간
가로수
따라야
수표
열광
목표치
##ld
유방암
두꺼
평화통일
##재해
갈음
답변서
미성년
둬야
아크
teu
자급
ssm
라운
특목
자연재해
나경
쇼트트랙
2400
명장
풍선
틀리
##소년
ny
모티브
제명
균열
윤영
양재
공공시설
변상
노예
수사관
늙
태어났
보트
코디
어서다
산청
##살이
노스
빈도
가야
업인
줄지
둥지
친일
회기
맹활약
지주사
三
때려
장갑
서강대
문학상
돌아섰
코로나
dti
##ive
내진
그런지
##케미
무이자
안착
산입
빗물
550
막연
붙였
문책
與
뽐내
붙인
단의
여성부
마루
##이행
찬스
트러
감탄
소양
말리
하와이
불렸
걸어서
패권
경주시
옥수수
##18
마세요
이랑
돌아다니
최진
날려
실지
장애물
닛산
우라
중앙지
##방울
##하이
여쭈
교포
버블
강소
화산
##니까요
입자
##쟁이
자이언
져서
교차로
자선
송치
페널티
방범
상관없
모던
숙원
사업체
땅값
전속
초빙
##날두
플라이
호날두
kdb
풍요
장원
인사말
##케미칼
1983
反
##ang
실형
여드름
엿볼
##문화재
상속세
떨어뜨리
134
달할
발산
주둔
아토피
##어스
저변
도면
바짝
156
전폭
문진
맞벌이
서영
연료전지
드럼
원자로
원부
호투
배급
딱딱
파헤
플래시
국보
지구촌
데일리
순천시
신주
정수기
캐피
불문
고구려
포화
중징계
가져온
도어
감사원장
정류장
ge
서두르
제척
뱀
월성
펌프
돌려받
##타임
당면
맛보
##스틴
동두천
촉각
참배
향했
며느리
650
임산부
남해안
해촉
화석
체코
커머스
북극
중등
신경전
강간
적시타
μ
대림산업
시효
138
wor
##체인
클로
응급실
인내
서대문
오키나와
명실상부
막히
##러드
⋯
지휘관
139
모터스
정대
담양
뒤진
펼쳐진
원룸
헤이
로움
조력
외쳤
콜롬
지방비
우스
총영
그랜
##속기
배양
앞바다
사회주의
##포터
가져다
무너졌
실속
해냈
##란트
##돋움
발돋움
직격탄
여느
계양
품안
우월
해커
선의
꾸미
직제
new
스미
틈새
소수자
생소
성지
슈즈
##꿈치
돌파구
판타지
스파이
175
187
치료비
그릴
##소통
##지가
평상시
의사소통
##무소
we
놔두
송전탑
유난히
##터카
교통망
렌터카
캐피털
##익수
퍼스트
수평
체크카드
##예금
서방
규범
육지
수력
규약
##14
비비
在
어때
짜릿
연주회
산전
센스
저서
첨예
취수
제지
간과
샘플
총파
회식
동조
느라고
sdi
답사
서약
어시
이희
화답
진척
##민턴
도미
출혈
반지
현충
앞세운
총파업
피난
진한
│
148
월등
더욱더
연장선
심신
손질
갈비
복장
받아들였
##오드
185
##투스
재앙
화법
머릿속
휘말
너희
버섯
청년층
겸직
강원랜드
헌정
ph
공석
넘어갔
연금법
파출소
1979
##지원
연재
정연
and
성황
재청
화사
146
교민
꾀하
잃어버린
김홍
피곤
##쿠르
쇼크
동명
미쓰
유니버
##토록
면치
녹차
레버
굶
늘려야
##태우
탈피
식민지
야채
유익
신분증
김부
버릴
##난방
lo
질책
투신
구본
성북
더해
평택시
##밸리
각하
개연
비주
부추기
개도국
끊임없
발자
퍼트
다는데
내시경
배심
##절기
엎
트랜
딛
불씨
지극
##글라스
##커트
내구
##12
흰색
##박이
bbc
높인다
이혜
수억
##민호
##전기
적십자사
2025
ag
르네
여타
불쾌
호에
존슨
영원히
##선거
대담
도산
뜻깊
떠날
생태계
리포트
해발
가치관
일문
파이프
절정
143
실비
입각
상단
내건
내사
한국노총
無
dg
ir
내기
삭스
기념일
중추
귀환
누출
투여
사계
참작
7500
동장
가마
수서
ok
##토토
조카
저질렀
그랑프리
샤워
##리케
세르
움직일
전문직
분사
도피
빌미
중원
##천동
감정평가
수목원
무난
전매
헬로
##에스
침략
휴가철
늦춰
정병
방송국
냐면
정차
완성도
##키스
포로
유격수
배드민턴
cgv
무언가
영암
##이스터
두부
표했
임창
돌이
마냥
워커
유례
미디
신데
누수
nsc
설레
낮춘
##같이
각질
대미
당당히
이별
태화
무승부
##17
환전
이마
##각각
묶여
우물
들어야
밀도
동성애
특목고
백인
라니
##정지
옮김
희망자
김보
일본어
글쎄요
성급
슈퍼스타
지점장
wbc
생전
신정
활주
모스크
엉덩이
##ue
비빔
걸까
마포
잡스
프렌
장년층
수순
설계사
카운트
380
눈부
펜스
참가인
동물원
원재
정상급
국산화
사도
커져
142
신사업
항생
나뉜다
레일
인회
##말라
실려
만회
김포시
선대위
장동
어우러져
ps
의의
잠식
재질
##러운
사라져
등록증
배당금
자연스레
축조
엿보
닐
##행정
세라
챌린지
천국
흡입
발동
떠안
##동생
##폭풍
##ong
동방
리튬
하루빨리
이선
영사
女
미스트
청정기
급기야
뿜
정반대
등극
신다고
비만
2200
달라진다
이용료
용사
주의보
상세히
평년
수십억
했으니
##산성
다졌
방청
전한다
수동
수만
부상자
me
여행자
유령
상부
분향소
건축가
지각
철원
아가
결격
##막이
파우
계룡
##비용
레미
##노위
햇빛
특별시
삼성생명
당직자
생계비
쿠데
다승
불금
##페이스
전관
장세
귀여운
살펴볼
고안
누비
당위
프라임
충고
갑상
머신
망설
기보
5500
감소세
가정폭력
원재료
경직
법치
귀띔
춘천시
##구장
해이
영산강
넘어갈
차가운
김소
몰락
혀
탈루
편차
눌러
끔
다치
##bi
##결승
몸값
##턴트
간략히
플랫폼
연기금
콩쿠르
##산동
##프스
난이도
천안시
속내
이민자
황교
이체
더더
틀린
짠
bp
153
깊숙
법사
법대
복안
스티븐
개체
숱
명함
박해
후폭풍
표류
취직
놀랍
자백
곡성
친숙
##일답
모여서
일문일답
마신
첩보
무색
무주택
얼어붙
어워드
골절
밸런스
줍니다
독보
쿠데타
줄어든다
대응책
##장치
파트너십
다발
천명
프린터
까다로운
수천만
청각
팁
생체
상기
아이디
대마
성형외과
가스공사
스티브
관통
너스
신의
섞인
무소
전인
추기
손색
bt
공언
국제선
다룰
뛸
149
영진
으러
de
이재오
초음
복식
1981
gl
##igh
제왕
위기감
일탈
풀려
입당
건넸
열연
##미디어
파이낸셜
##서스
계산서
오마이
152
푸르지오
##11
의료법
기습
##운다
담뱃
완도
존치
지중
박승
골문
갖출
만지
과기부
블룸
ngo
다우
낙선
타구
영월
##하늘
규율
다크
법체
돼도
자긍
bc
끌어내
급부상
동해안
스무
학비
팔려
내준
전문대
골목길
##베리
공범
가루
소방방
기승
하트
가덕
##워야
포켓
##수리
흥청
##징어
자긍심
왼손
공교
산타
동래
커리
시안
전업
지켜본
##16
모공
머무르
보온
뮌
터보
##13
내과
승패
실익
소박
출발점
노회
소론
일보
오디오
##리그
##쓰기
두뇌
차상
형량
심심
파울
##이나
전셋
만연
2300
추대
볼륨
남양주시
알려야
일용
오송
론스타
南
##다지
부천시
정동영
발광
메우
모아서
작년도
엘지
추기경
주거지
상충
차관보
행정소송
고창
##one
기저
밴쿠버
손꼽히
화물차
##se
##조선
자가
항생제
##베스
줄여야
car
##무진
블록체인
일류
軍
보탬
에르
생겨나
##탱크
공해
##찰청
대검찰청
밍
파스
식탁
벗어날
다퉈
수심
걸러
부가세
들려주
안개
##72
장학생
켈
맞선
장흥
##터스
활주로
래미안
기내
##ure
위스키
광명시
견지
필기
선글라스
식수
##듀서
프로듀서
##으므로
증식
비주류
중개사
시아
금지법
이랜드
##니즘
서울역
셔틀
교통수단
순례
애써
청사진
파주시
회사원
금회
카테
간염
알바
가닥
체온
륜
금정
브렉
카자
일깨
fi
##카르
전전
조직력
##업소
아프간
대승
dc
##미리트
진열
소화기
##프레
콧
양동
동선
정기예금
으리라고
어법
딜러
트윈
연례
##과이
사업가
경의
아메리
변질
##구석
팟
책임질
펫
문법
##투자증권
극우
에듀
178
경질
참관
자회
skt
스페이스
모닝
##부족
내려갔
휴먼
조인
객석
미숙
##19
spc
로컬
밝혀야
롯데호텔
멸종
왕성
괄
구태
표지판
남중
느껴졌
신생아
공급자
니즈
왕실
색채
루트
발랄
서재
공시지가
안대
##다르
저리
##ag
화요일
마쳐
일화
지켜봐야
##ark
부쩍
재가
154
나간다는
켄
유영
컨퍼런스
여종
외과
##35
섣
성악
과학고
##장구
버거
구이
노점
연습장
##어링
숙성
내실화
조윤
퇴직자
↑
최형
한화그룹
경진
다목
대의
기록부
위계
천정
카자흐
변동성
마틴
견고
역전승
정종
으라고
고구마
저지르
농부
숙련
다녀왔
기념행사
낮출
된장
우여
##카락
촉직
머리카락
나르
끔찍
모기
모태
흘렸
자처
출사
자수
접어
##케이
철근
겸임
시화
적임자
노동계
로즈
당혹
매운
##부인과
거시
동거
속옷
오른손
개수
압구
준결승
체인지
전립
발음
who
168
집니다
동요
##연구소
이나마
공탁
연예계
드래프트
경남은행
강서
cr
##모니
가진다
흘렀
##곡절
어필
수백만
서예
초미
외지
존엄
의료관광
##퍼트
누워
net
납니다
잔뜩
우여곡절
형국
강타
획일
출현
유언
기념품
ces
바이올린
유적지
겸비
땅볼
원론
숙명
예비군
본토
147
송환
매듭
일쑤
퇴행
송부
리베이트
착안
家
김시
우리은행
마법
농기계
아랍에
연행
욱
뇌졸
法
알렉
풍기
선뜻
팍
소비량
##제한구역
함안
근속
고독
극도
프린트
직불
##코드
훈훈
점퍼
씹
모른다는
저력
토막
의왕시
강했
선후
산부인과
##셔야
내포
ev
변해
##종일
왔으며
친척
드려야
투자가
##재판
꽁
수도권
상근
kw
일삼
틸
씨름
광양시
나이지
구강
가압류
엄격히
##실히
전차
6500
하우
##그래
##겁니다
건가
주점
보살
모릅니다
미약
직선제
고갈
랄지
부원장
잡혔
할지라도
냉방
##일드
감행
레지
리터
선언문
광산구
무너진
실에
박현
건데요
인승
김영삼
말기
뜰
녹조
원두
긴밀히
아키
진위
운운
추월
##홍철
폐암
다가온
정쟁
건넨
관리인
테이프
ft
발제
##ate
##요금
오징어
한국사
어시스트
##모토
기뻐
무방
다녀온
낱
졸속
##투수
셨잖아요
##상스
도왔
##세우
보너스
리본
##워진
루이
조교
가파른
벌어들
전시실
도울
ipo
해태
처사
158
시료
##일치
당대
소멸시효
이천
재일
지르
집약
외압
천사
제발
뮌헨
그물
낭독
이춘
아메리칸
##저트
다량
기공
##세데스
메탈
화고
##줌마
우루
##과점
준우
감독관
라이온
체내
드로
멜로
접점
북적
##하우스
##혜진
육체
손수
피터
펀딩
뇌졸중
움직여
일차
정태
식단
##95
고강
착륙
극한
의안
통째
##치소
아줌마
굵직
선수촌
지칭
극본
박완
장편
남발
우라늄
신다
후지
뿌려
토트
162
개각
웨스트
선발투수
낙마
스터디
##제표
지옥
비틀
문광부
본원
제격
썸
##ect
고른
사이언스
바비
돌아올
즈음
익산
청렴도
수조
깡
##리사
전라남도
##겹살
##마블
세안
넷마블
흔한
靑
낯설
하부
하버드대
전년도
페미
숨겨진
유학생
매기
울려
고취
삼겹살
선풍
재무제표
한림
높여야
드나
뒤처
겸손
##42
아바
퇴원
사극
통틀
어떤가
고등교육
훈련장
도난
뿌듯
##iz
경복
##각서
폭풍
못한다는
이우
미친다
승선
난리
유라
는데도
서병
이율
펼쳐졌
누렸
심경
치닫
너머
비시
풍속
포크
유머
주원
평형
원년
##프로
양해각서
mp
공자
김구
다방
점쳐
반감
유소년
1978
하류
서른
운동가
##ab
간선
사절
비철
##33
개요
늪
성모
항변
지금껏
##ke
마실
혼다
##이치
관은
촘
상계
찬사
큐브
웃도
##공서
166
##마리
날카로운
진수
乙
초유
폭설
유시
체납자
##영화
모건
일렉
오리온스
왓
##부모
에드
산모
섭외
굳건
망가
##특별
프로야구
파탄
경상남도
현대증권
한해서
어둠
오름세
페루
위기관리
오이
##43
멤버십
침범
gr
캐시
원시
아미
위크
글쓰기
모의고사
신앙
명명
발맞
구실
벽면
측량
교육법
정용
르네상스
kc
겨루
스릴
제천
창간
디저트
농경
다카
##집행
백혈
非
병영
부적격
역외
##ica
단국
不
각인
터전
해준다
달인
들여서
##특위
직계
##pr
만장일치
히어로즈
동경
도전장
학군
맏
##불리
##청사
일반직
##지수
컬링
윤성
##로움
다기
이직
패소자
##줄기
가락
##메이
월화
종양
고루
안타까움
340
이승만
허벅
재항
부양책
##어냈
##ass
김범
축전
황우여
플로리
##저리
통신비
떠들
탤
##ard
승강기
날아가
신협
폭격
2800
절단
참신
산수
중상
통운
강동구
합친
허점
스와
풍자
킨텍스
##우트
캐슬
소변
참모총장
##로리
선상
##고래
뉴딜
초음파
리츠
박보
수공
어기
바닷물
김종인
선제골
쌍둥이
##갈이
제사
어스
유능
볼까
초상
재석
장윤
가문
힘써
블룸버그
테라스
##48
행적
벙커
선조
검색어
강인
못해서
면직
재연
##원식
라오스
아낌
풍토
경제력
문성
임해
##ech
고용부
공사장
keb
고위직
시험장
##제리
불분
휴양림
마린
짬
으냐
모스크바
빙상
전산망
가뜩
지방채
생수
委
ws
안치
합병증
불사
pro
저것
현관
불분명
구매자
암살
냉전
삼성동
귀중
무성
본능
코팅
市
사회봉
진다는
미성년자
카트
가뜩이나
##무게
추방
기자단
몸무게
보단
베드
격상
학술지
外
##보레
종신
cb
子
피보험
쉬워
달걀
원어
장례식장
징벌
그리드
최대치
끌어올렸
고위험
인파
껍질
뚜껑
사방
추심
물러났
쌍방
추출물
##로우
성토
몰랐다
다져
불상
엉터리
전셋값
##니지
차이점
수교
애로
##납니다
남원
조이
그다지
내전
몰려들
호선
##파리
유희
묵묵히
세인트
신중히
넘길
수박
레오
커브
듀얼
시네마
##연료
직업훈련
동전
##기념
패딩
중앙일보
마취
우승컵
샴푸
는커녕
맞출
삼성카드
모리
##하루
김호
두드
차리
##준호
몸싸움
콜롬비아
간장
검단
여럿
올라간
핵연료
보라
맡길
임상시험
결렬
우파
병우
afc
##재현
박시
수사대
억압
##축제
팔레스
트렌디
cu
늘린
용산구
씌
##도르
##젤레스
나열
계장
지극히
이브
패했
절개
등교
디바
들러
과천시
구한
알림
부끄러운
고압
귀촌
수락
바뀐다
제작자
##부패
부정부패
동백
나아갈
네오
이변
이해찬
사주
게임즈
실과
연석
바나
모노
판촉
검열
맡겼
법체계
불식
숲길
2700
##대식
주선
끼워
바닷가
##명숙
젓
에디션
봅시다
넘어설
##하키
뽑혔
가져와
장보
225
날인
##28
##fa
##성동
##디언
온통
##지르
##27
신촌
천지
재조사
폴리스
참치
내성
nhn
요동
떠넘기
고금리
맞섰
##46
##보험공사
폄
벼랑
잔금
합쳐서
가열
최민
에이전
전병헌
##rs
자초
지양
##ill
학장
관전
통지서
053
사회관
피츠
꾸리
버린다
원더
무등
소동
호감
미끄러
테라
주스
집무실
여하
무궁화
좁히
세아
##미애
확인서
단층
##밴드
역도
박연
카테고리
블라디
허벅지
톨
미칼
유휴
봉급
le
금상
침착
여진
충실하
프란
공매도
천막
2600
김양
부검
##통화
구금
국화
아실
중개업
대면
두려워
출연진
연기력
##Hz
420
렙
kgc
돌출
감격
볼게요
귀가
역부족
만세
은은
##축구연맹
적재
조수
앙상
미술품
보낸다
방콕
재능기부
편파
봄철
176
수개
장신
정영
부통령
어렸
변환
슈틸
부녀
여간
##어티
fm
상업시설
용접
트러블
사명감
간병
번거
사계절
사고력
뉘
상이
고덕
킴
무제
어마
에티
al
##일러
장안
에센스
커진다
##다오
이학
##36
진행자
##광석
상국
교습
돌발
미모
1975
유급
건대
자취
농수산
쌈
단결
속성
저쪽
클렌징
으리라
top
개포
복싱
산사태
프린팅
##니스탄
딥
아반
##상가
##미경
엣
##곡히
戰
이낙
##22
협찬
타개
종영
##47
갇혀
수칙
리뉴
협력체
득표율
정찰
브레인
##49
덩어리
휴무
고층
안목
##지우
회가
팔꿈치
탈환
관리원
몰라서
소소
촘촘
선거인단
구독
공여
세무서
##수도
악수
##85
대용량
수뇌
동호인
심리학
공익사업
청소기
##태영
적중
##중독
펴낸
이국
사하
海
자행
어때요
원청
이점
극찬
권선
스틱
테크놀
신예
양반
외자
화살
일컫
∙
로이터
이랬
이채
연구관
성서
목적지
반등
최저치
식생활
개업
계망
연골
水
##41
청결
박대
사라질
열거
아사히
性
갖춰져
유화
##노스
액체
투표소
경작
##스타일
##21
셜
열세
문정
휘둘
단거리
레시
;
특조
호반
유실
공소장
허정
꿇
파열
##26
윙
생필
생필품
어느덧
##오리
##오카
예정지
탄산
ᄃ
□
신기록
골재
선양
책임져야
oc
놨다
tpp
구례
큽
##올랐
다산
내려와
감량
아님
##민석
넌
인대
제방
정복
석권
##창수
귀한
최하위
지방청
배영
감경
주택가
골드만
사나이
퍼팅
자락
연립
##통화기금
송정
특임
205
큰일
발암
조광
례
157
뭉쳐
피칭
출사표
토니
차용
뛰어든
탭
액화
고배
영남일보
쌀값
선례
안마
나들이
850
one
설화
사리
범주
야쿠
취록
강석
덩달
레이싱
피해액
##23
##셔서
##천리
덧붙여
스티커
코리안
##나리
노려
반고
새로이
소사
슬픈
일궈
손바닥
1974
세이프
황영
슨
##끼리
격렬
전과
담아내
인적
고쳐야
애쓰
기고
단추
※
가리키
경비원
##용품
식중독
흘려
명세서
끌어들이
파리바
쥔
불발
유권
합하
핑장
준우승
현대사
액티브
1973
해직
패드
로스앤
억지로
백두산
잡음
당도
마그
안티
방망이
2100
기울여야
전기료
황정
부제
원어민
금세
생물학
무슬
원수
어획
라운지
알린
노래방
동의서
##이탈
효소
듬
선로
개선책
예규
나들
몸담
누진
괌
나미
러시
요미
퇴치
플란트
스물
그럽니다
성화
사당
상속인
밀레
##99
수인
친족
수문
섬진
처했
퍼레이드
MW
승부수
의료인
저절
화끈
스며
마스터스
습도
나들목
##37
밸류
달려가
번식
시련
콤플렉스
베리
선량
지구대
횡포
##결연
듀오
자매결연
올라간다
홍천
정파
저절로
소생
##24
선주
수매
헷
해답
증감
##착오
역행
불거졌
해운업
시행착오
상담원
##질서
연어
사들이
환경청
뒤흔
이다
약서
전립선
도비
##팡이
번갈
예술단
구명
mo
방점
신자
초중
밝혀진
과대
채팅
전라도
무슬림
장중
랴
##어요
ci
거슬러
흘러가
초연
악마
이룬다
명상
기울였
오리지
팰
물어야
gps
샐러드
손보
올인
어떻든
사청
다이오드
##무지
세리
푸짐
다뤘
물꼬
고온
공소시효
몸살
끝냈
동급
계발
옹진
휴전
연천
불출석
혈당
ess
영상물
특정인
290
별관
일터
성장기
세습
차근
신병
미묘
청계천
트랜스
相
신변
진급
작업장
깃발
쓰인다
센텀
아울러서
##엘라
예천
##텔링
담수
물체
변모
스카우트
박석
속보
갑상선
##ly
호국
아반떼
데님
강등
가나
도축
과외
망명
시승
가평군
sl
##택시
플로리다
입출
jy
이따가
빈곤층
##금고
해리
이회
마을금고
병상
발열
얽힌
jp
노동력
대나무
탤런트
간신
기해
양지
gtx
온전히
##65
징역형
370
수의
띄우
건보
헝가리
대열
원활히
울타리
들썩
##쪼록
재결
서초동
후계자
실험실
쌓았
親
정족
김규
서문
따라잡
홍보물
##매도
수없이
회신
##블랜드
절도
학창
영유권
그린벨트
따돌리
부영
토트넘
임태
포식
화천
합니다만
구했
##운동연합
자유주의
제강
公
##노이
bis
조승
백혈병
살펴봤
##96
어버
연석회의
서기관
사수
으로선
칙
##31
뭘까
마이스터
큽니다
미관
렛
최문
문학관
합의서
간혹
하루하루
##노소
어버이
입성
##몰이
어딘
무사히
맥도
비선
pop
따를
##32
##베르
키움
출납원
480
무작정
강관
##무장
택한
담백
天
메르켈
양면
로또
기생
##지먼트
##our
동종
릭
ns
員
우측
촬영장
돋보인다
컨설턴트
##보이
sds
연봉제
막론
##어마
매수세
삿
섞여
##마르
군요
튀어나
##부동
혹독
은밀
##55
즐비
어김없이
차인
계엄
아쉬웠
솜씨
밀가루
자이언츠
좌완
남녀노소
난관
참담
부대시설
생존자
##71
덩치
리치
##79
수혜자
아쿠아
지휘봉
도봉
환지
귀족
연달
다녀오
리뷰
까다롭
##창기
극동
구석구석
양악
정인
강아지
##방위
##76
렌탈
통념
행방
묻혀
도립
격돌
두각
닌
칼슘
##공개
여동생
##심판
1976
숙지
ibm
인준
교토
대명사
##산업개발
##착륙
낙인
홍영
천하
비행장
가상현실
쓰인
지방세법
담회
가창
태권도
이소
##보내
##에어
에이즈
엑소
포석
희소
그런가
박은
엄지
##누리
흉터
법조인
##상정
심부
심폐
3600
어마어마
##92
포즈
구슬
띄워
접견
애리
인덱스
제각각
커리어
깨지
순매도
##98
악몽
취합
##노당
설령
교란
했어야
부산은행
던가
우린
##처리
친선
##ma
부업
가파르
다쳤
포커스
##아시아
양구
정족수
드러난다
강신
비아
붙잡혔
안과
반군
소견
노린
신명
##ment
아찔
빌린
민노당
시차
아날
잇따른
대남
보탰
커서
마오
관공서
이어받
군정
세간
후견
강창
평판
되돌려
쿡
그랜저
강물
yg
치부
고아
조연
비수기
페이퍼
대치동
해양경찰
131
운전기사
기정
##78
시흥시
명인
펼쳐질
심기
아세요
뒤편
hs
서너
탐험
맡긴
백서
유모
밑돌
안전교육
부츠
낀
추행
패럴
사은
##라노
위암
풍광
밀러
가할
두터
택하
元
강대
니켈
어떤지
군포시
손발
치사
하프
출입구
쏠림
용돈
노숙인
파고들
##거렸
씁쓸
천문학
화훼
사립대
최희
##38
崔
기흥
산은
##뿌리
선율
우크라
모텔
선방
거주지
화웨이
넘버
램프
살렸
오리지널
##에르
디즈
수처
금융업
뜻밖
월가
##ub
무혐
상수원
주성
란다
시판
제하
행정력
이연
폐광
mbn
부흥
수뇌부
에볼
작정
흔들림
소행
원했
위약
아레나
보증서
간행
##남동
승승
언행
악의
박한
악성
와야
코스트
논산
는바
쉐보레
아날로그
설날
##러브
에세이
페인트
##ack
변국
##등기
구애
잡아내
노년
##틀랜드
##숨에
단숨에
피부과
서상
##차근
차근차근
마른
진솔
가점
기관지
북항
거머쥐
心
목장
##34
공습
바나나
스키장
소공
돌아간
가출
체장
나날
잔인
주중
필라
8500
상큼
병실
지배력
능선
케미
사적
▽
##차기
결여
고종
리처
기침
긁
##테롤
쾌거
##거스
안병
##사무소
요미우리
들어온다
##태용
달빛
승승장구
신빙
복면
펜션
gp
산물
후방
##ort
ia
왕국
자족
잉여금
시크릿
확고히
끝낸
장제
급속도
식용
##97
3200
교향악단
박동
자금난
나아지
수식어
위자
올리브
±
케냐
축구장
지뢰
원주민
조계종
참패
sy
네거
##용지
당겨
경쾌
유교
오른발
텅
산후
위태
훗
구절
양수산
요가
대장암
놓쳤
주임
ost
백지화
진주시
미화
쉰
군위
회비
둑
장대
필두
예산액
네거티브
1977
일품
로그
##91
판소리
정석
고성군
이왕
스테인
헷갈
##희경
##ial
난감
비장
빨래
시간대
친수
조롱
무너져
재가동
복도
광복절
선후배
준다면
난무
수배
자비
역삼
아프가
하남시
전라북도
종식
폐렴
미투
콜레스
지평
gre
순직
스마
출격
##가짐
기틀
관리사
##tal
시황
안행
카다
아트홀
통한다
교통량
톈
개항
드루
마셨
시시
편찬
썬
##돌이
속해
차이나
##코인
초창기
와일드
물러난
데스크
자유민주
##주민
세원
##74
신호탄
비누
기본급
귀신
미납
시외
피서
승낙
작사
리버풀
폐사
캡슐
살아갈
스커트
틀림없
항일
요율
괜히
성년
그래프
보여야
무거
pef
##29
##이탈주민
잭슨
아스널
영업자
##과학
백업
銀
끼칠
번번
##73
쐐
權
미스터리
##레일
변한
외벽
특산
##을거리
무제한
단합
폼페이
上
거듭날
##혜영
망치
pe
레스
광구
##지역
폭언
남극
플라워
속한다
재보
남동구
복판
속이
##81
##93
이불
거스
산란
하하
네이처
무고
완만
출항
일손
울트라
묘역
왼발
물리치
소방대
금형
##버섯
볼보
##무니
##94
서포터
급히
세세
피츠버그
애리조
개헌안
체납액
겸허
산적
약진
주안
세무사
폐교
부문장
게을
야스
점주
명예퇴직
균등
밤새
워너
역사관
곶
미셸
##사랑
외통
핸드볼
da
향유
고지서
##숭아
부사관
##위성
풍미
총동원
출입문
소비재
##위치
드려서
전광판
화소
정해서
다가올
3300
아랫
전문지
여주인
태아
wsj
메디컬
요리사
사격장
막힌
킬로
힌
분자
1972
리틀
##정보
최규
##음료
도자
박형
기무사
청구서
의아
스톤
피보험자
페달
후원회
의총
##66
블랙박스
비트코인
럼
상한선
투약
3800
불능
자막
개미
전자책
넥스
적당히
흩어져
인피
퓨전
청주시
방중
어땠
##국장
팬택
문고
##수엘라
급식비
스트레
이겁니다
이보
헌장
서인
공명
거버
성대
##트륨
조희
보이콧
추종
앙상블
151
의한다
지망
미인
소극장
만두
새겨진
울림
##라이나
사재
청양
고마움
였음을
열사
투병
본예산
일러
장영
龍
##득점
기만
놓였
구치소
숱한
쓰였
##63
레시피
生
##제강
놀란
태그
조원대
케이티
백운
독립영화
버금
국민카드
마칠
애도
신상품
영등포구
##리나
판다
장도
방호
억류
##다듬
야마
141
##조작
##me
어휘
진공
할애
확연히
통풍
채운
스테이크
불우
왈
불릴
간다고
뿔
굴욕
승부조작
스테이
조선사
토너먼트
일주
재기
판매점
과밀
방증
최전
한성
해내
절로
대작
얼룩
##연수원
결연
바빠
미지급
##워졌
장내
베일
국방위
곤혹
따낸
골격
강남역
내려앉
1930
양주시
속여
뷔페
으뜸
경실
연못
기념회
##82
해적
주저앉
꼬박
##우마
대청
이긴
파나
본조
430
청바지
아무쪼록
##렁이
sf
굴러
동인
수계
강수량
팽창
##67
로직
즐겼
특전
앞당기
발대식
동국제강
##니아주
스트리트
단수
탈취
도로는
주지사
엉망
per
소지자
경각
동자
식이
##89
형벌
호칭
##호우
사활
##식물
잇몸
초고층
##뜨린
카디
경차
능률
신현
내려왔
레미콘
집중호우
정모
##83
대령
##기념물
바스
가디언
국부
정호
뜬다
애호
유성구
도가
행법
물어볼
잊혀
장만
천혜
움직였
진흥회
sd
괴리
310
무심
나돌
불화
유린
##대간
백두대간
망인
복당
조직원
싱크탱크
판세
##플랜
유람
입법례
더해져
年
박빙
철광석
밸브
아부
전자파
꾸민
경영난
##기술센터
난립
메이드
물색
뽐냈
석상
옹기
퇴사
미야
조동
완치
지켜볼
가설
채웠
학기제
친한
포탈
##net
포획
물놀이
관상
발사체
남학생
##52
반란
##대장
크라이
패션쇼
개최지
##맞춤
미녀
함대
재화
양정
웃돈
독식
이룩
의전
트라우마
난치
##라면
깊숙이
안전장치
##56
icbm
오영
스러울
루머
날치기
물갈이
##덕이
타이거즈
도스
삼가
보임
##국해
리자
술집
시찰
연명
질소
야지
체형
심했
일사
팀원
##도록
##선미
예시
굴착
##거름
##테르
사의
기형
플루
담담
먹을거리
어뢰
벗어났
중금속
함평
신인왕
못한다면
##62
광해
레바
내린다
타진
구도심
미네랄
캐리
야말로
스케이트
##튿날
낸드
실렸
쐐기
무진
폈
##거진
탄성
노동청
무용단
kn
빈소
박철
영양소
##왜란
내놔
수개월
임진왜란
무명
이튿날
진리
접어든
개소식
과소
##하마
졸업식
발레단
배타
ab
##바탕
저렇
뒤쪽
짤
##차림
소파
쳐다보
웅장
안종
건축사
##68
올려야
##정리
두세
매사
합천
시제품
지반
빚어지
칼로리
별세
겐
임업
불려
위즈
로이
나인
광대
견줘
코끼리
불통
##39
찼
대물
간신히
##저축
장모
쫄
地
연출가
정은
의과
야쿠르트
옮길
감귤
사사
거물
##위원
##사람
##예우
거래처
전관예우
가옥
부총장
어장
외무성
발맞춰
헤딩
핸드폰
인신
노키아
연락처
다이빙
견뎌
관망
뜨거웠
소고기
다던
이문
존스
금천
수강료
kbl
##리에
##학습
봉하
무수
한판
바겐
초석
후원자
초당
지식인
밀렸
4800
녹여
양키스
축협
kai
제주항공
역습
사은품
갑작스럽
##넌스
로보
경각심
수천억
서북
스톡
반가운
그립
강우
광학
1971
구워
울음
증기
모기지
거버넌스
##쓸이
##dc
핸들
tra
송년
환하
사저
버드
혼동
차제
1945
한국학
##충제
##인수
트윗
강풍
과하
싹쓸이
미러
소회
소유주
약제
향응
열대
선적
경료
필승
##큘럼
티저
등락
##림픽
스위트
리아
박광
은닉
지날
생동
토탈
더더욱
경제학자
뒤덮
커리큘럼
통할
권하
리처드
체증
모방
막막
사뭇
쏜
요구서
빔
부지런
##51
##61
##87
우방
##순위
발렌
기장군
체험학습
##어질
상경
김춘
직권상정
공격력
유산균
비빔밥
배낭
타고
최승
정함
##그레
낙태
리오
장자
응시자
마음가짐
州
버텨
노벨상
##체육회
##진로
##은색
##정식
##특구
입히
양산시
주소지
목돈
정두
제품군
국선
시애
렉서스
훗날
쇄도
bnk
감금
성패
밑거름
팔린
하역
全
스탠더
노린다
아산시
##라이언
고현
돌아서
섀
생사
##깁니다
그림책
니콜
끈질
배심원
왔으나
터무니
##제이
시애틀
추리
양천구
나기
최병
대장정
단언
청중
abc
이남
사다리
호도
젊음
원법
스탠더드
소량
경영인
양립
다시금
세워진
완제품
마땅히
란스
운전사
피드
알맞
느리
래퍼
사회봉사
놓친
밝혀내
피했
쏙
##운트
빠짐
방울
이루어져
하회
김철
문양
삼양
두렵
라이언
##84
둘레길
이완구
애프
게을리
토사
육수
여객기
계신가요
주립
문희
석학
미래형
블리
홍문
반쪽
장차
순항
조선대
서귀포시
일병
박범
연수구
뺐
gw
낙점
벌크
##연재
모빌
hp
부식
최인
그레
##ms
세브
신시
가로등
막중
인단
nba
코앞
완승
김중
경실련
날로
멜로디
올라서
보잉
유라시아
비화
하한
심문
격화
멸치
잔잔
열띤
토리
허가제
공소사실
##ence
국민대
가르침
북아
1968
딘
##첨단
세워서
최첨단
자산가
청담동
아껴
##휴가
man
시급히
소방본부
느슨
로라
제곱
ltv
##젠테이션
봉합
마곡
520
##효진
랄까
시추
어둡
명기
공황
연세
골밑
안겼
불기
내려온
지사장
빼내
기다려야
자아내
수은
암기
디딤
##64
엣지
담사
실생활
##버거
##그리
##학년
샤오
군복
원치
성전
방만
여겼
디즈니
툭
진다고
베토
현주
섬진강
알짜
熙
##릴라
平
분경
fe
이력서
제보자
강압
##pl
인피니
오케이
몹
##기능
명쾌
스텔
번번이
시드니
##86
맞닿
##테면
통틀어
서도
안도
육류
나물
대당
견딜
바늘
암시
카다피
안락
주정
시사회
미학
할증
때론
브래
##사전
선거일
재조
위약금
어울려
실마리
##슬라
사체
##승용
복부
결별
이니
재항고
담론
입비
설립자
증권가
짜증
조폭
패럴림픽
해인
고등어
멋지
미시
호화
서태
토익
베토벤
도화
게시물
##쳐서
동갑
최고위
정예
##그림
염소
과기
서식지
재작
축산업
盧
끼친
묵인
##조치
괴산
sr
녀석
독촉
리딩
비무장
성수
송출
황토
이를테면
바우처
패러디
강의실
##성이
해낼
##어드
인질
무용수
윤재
지워
수십만
찬물
경복궁
京
만능
코노
원예
외야수
##신호
na
##케어
지탱
립스틱
분업
oda
키트
심근
나성
루프
##뚜기
##58
교단
ak
파전
득실
취해야
당근
카스
멜론
입영
조중
서대
안이
로울
인천대
하마
세일즈
독과점
시향
성완
##바바
존립
내려야
여우
차주
채납
틀렸
전해진다
하나님
흥국생명
설악산
억만
투자처
등본
복숭아
한데요
##웨이트
mri
1963
망라
무허가
어드
마카오
사지
##주의자
간절히
##광장
쿠웨이트
브러
cia
무마
드래곤
1948
총격
초소
쿠션
☞
단양
민노총
##클리
오정
디렉
노란색
스파크
유골
뽑아내
수출국
진단서
아팠
간결
무패
ecb
맴
발리
김충
호박
aw
서운
이끌어냈
똥
명예훼손
##태평양
뾰
감히
강릉시
비자금
dr
연한
보상비
파이널
몬스터
성완종
한다거나
##벌레
전재
흔하
에이전트
성경
분기점
현존
사우스
리프
##레마
공학부
절묘
끌려가
##진다면
가업
펴냄
sa
줄인다
컴퓨팅
마리나
넘나들
반칙
후면
결사
##떨어진
고엽
출소
서부터
생가
아랑
all
퍼블
##부지
두드리
##베리아
프라자
해왔
이방
곁들여
##스태프
##십시오
두꺼운
티브
음악가
애완
전동차
나지
우루과이
##숭이
제설
쟁의
출금
더운
상록
포대
##규칙
동정
모교
저명
추진력
나눠서
휴양지
요르
임차료
test
gc
재범
호봉
##정원
빅토
휩싸였
my
불고기
상작
방폐
##57
판명
만루
오죽
독소
강철
榮
학식
노원구
챙길
초심
녹록
정확도
결말
벽돌
##54
##전드
구급차
내리막
수혈
절친
##우주
유틸
유틸리티
불응
직행
왕따
코카
불합
주효
##회관
매달리
발주자
사무장
변조
효용
##슬링
롤러
이형
흘러나오
베이커
평가서
시조
못합니다
이찬
충동
##장면
중수
레포츠
문헌
갖가지
출산율
sn
이홍
경대
가격대
政
몸통
땄
벽지
한솔
에디
유창
유통망
##인구
들린다
##69
실로
물놀
압구정
천일
종중
합해
추징금
통진
고추장
경성
텐데요
사춘
내려졌
양용
##세훈
돋보였
노렸
명사
명할
고운
##베이거스
라미
##라지
면회
임수
살충제
제너
일생
##꺼풀
허무
##ance
통찰
상영관
월등히
일회성
비평
지울
제빵
pa
아테
헤아
되살아
보디
물리학
폭주
벗겨
연가
차후
##로호
밀수
오보
진성
정오
영재교육
기대치
자료집
코코
양식장
mr
레전드
닭고기
usb
두드러지
유명세
##지기
반열
공급량
일부분
엄두
쓰일
nyt
선거전
##ez
말투
로열티
수업료
평했
선회
몰아넣
한의사
공적
미아
출고가
부평구
분화
dgb
장단점
플래그
##53
계신데
440
네이트
화기
재작년
##ater
평점
그제
무드
첸
블로킹
##습관
식습관
관용
저촉
총칙
거니
mlb
뜸
떠돌
예단
농정
면도
어우러지
여주인공
왕조
정청
찾아다니
교구
팩스
사절단
판매자
인먼
하순
선입
대형주
시가지
터트
공모주
정취
##인지
딜레마
수작
한라산
##연금
빼어난
##nd
연연
정근
##유국
일어서
si
망원
전출
나트륨
##체능
세터
예체능
맞은
김덕
필연
1965
모나
선발전
환노위
맞은편
당사국
침구
협연
가용
반부
유비
##주곡
초라
1962
##이어
벌레
배상금
끓여
았었
들으며
밋
##쿠스
다친
두드러졌
감내
클레
십자
올드
드려도
햄버거
댈
화분
범어
##석희
##화질
수트
대타협
##인권
얽혀
교두
##년단
묘한
스텝
전환점
밀린
여름휴가
툴
과속
주교
나이키
궐
왠
전태
색감
공문서
근로복지
나스
간사인
황재
팩토리
팻
##iff
企
집적
자부담
중등교육
원성
노련
소시
박홍
안내문
풍물
위함
당은
솔선
허니
예금자
昌
옵티
욕실
3400
정상회의
담그
시달렸
답한
몸집
망신
레바논
부조리
성모병원
의병
근현
atm
활로
매수인
컨셉
테두리
농경지
반소
병동
가부
결핍
리부
계신지
民
종금
용선
샛
1969
원망
##깨비
##병호
인감
요르단
종단
460
다각화
낙지
ppm
##타자
기꺼
서천
하사
휘두르
지로
대상지
풀어내
식감
전주시
##료품
##파이어
명가
미온
잠들
남다르
과격
킬러
우동
떠난다
항공우주
##나갔
##들인
최시
도용
김밥
편도
##베트
칼라
고착
고단
비상근무
##모습
##탄소년단
기판
시어머니
북한산
##는지
저당
창호
##bo
무의
지만은
기정사실
역내
부풀려
스미스
가왕
똘
환급금
퍼부
내란
한경
apec
반증
액정
정글
각료
은하
길래
연극제
##촌동
하구
융자금
오차
외대
첫발
드러날
##네이
매화
아이오
억대
창업주
프랑크
교두보
소형차
강기갑
샌드위치
멋있
송승
보인다고
##지휘
면장
리프트
살아왔
530
成
역풍
밀어내
숨통
버금가
위생법
철강업
랠
화전
말끔
섹션
여직
천식
내심
제언
##라미
고견
처형
촉매
열전
립도
쿵
부안
게이츠
물려받
실직
왔었
라벨
퉁
사회학
관저
예비역
관영
필요시
프로그래
스트레칭
##코스
세계유산
##회복
자갈
자성
안장
콤비
유지관리
##림동
꼬마
망하
오르내리
위자료
양방
도의
식재
경총
감찰관
내려진
피로감
원상회복
男
삼성전기
돌릴
들였
사투리
조그만
대공
오수
혼신
고산
대행업
대문
명하
종속
펜싱
##진청
헤쳐
옌
항체
##ha
손톱
페트
중랑
징용
마음먹
시킴
거들
순경
스릴러
유사시
빈자리
빈틈
기울일
163
뒤바
불어
으실
tha
만족감
얀
자서
훔친
구내
주치
정명
거제시
권총
돌고래
긴박
축복
기꺼이
넓혔
부딪히
총력전
株
##푸드
전유
알리바바
식자재
강팀
피켓
동유럽
고를
플레이스
덕수
금기
건너가
기공식
선봉
두려워하
교직
기행
단조
방문자
##레이트
조양
어류
넘어간
변리사
액면
田
넘나드
합한
목격자
북유럽
박창
집결
토요
성역
대비책
디펜
세라믹
##레인지
공부방
키워야
끌어올릴
산뜻
장어
엇갈렸
구가
성황리
##딩크
팥
사춘기
유자
제원
##에다
연제
해본다
##uc
어이
프랭
##란도
예배
##렐라
나치
모을
선인
훔쳐
일용직
희망퇴직
술자리
예타
빌리지
승화
북경
수학여행
부치
대학가
##조류
##틸렌
디바이스
의경
지원서
ob
치러야
늘린다
비염
대웅
눈부신
무개
##회비
한잔
보증인
제주시
지기
채점
걸어가
di
##efa
의기
하모니
금번
원희
불러서
극명
여운
##전입
위장전입
불빛
예정일
해결사
청순
##경정
지오
##ank
최현
몰수
물씬
총출
쓰러져
##구식
군사력
브레
은근
해프
셰일
##경정예산
9500
후쿠오카
##다운
묵직
민경
옹진군
느니
신대
동맥
##패스
학내
자판
깨끗이
기출
여과
지나간
로직스
##문고
임영
히말라
마리아
종용
슬라이더
기선
칠곡군
진에어
떳
양육비
잡화
들려준다
##규정
콜라보
##차별
172
사라진다
근력
승기
##코니
##폐물
전월세
콰
##볶이
사르
팽배
따위
모셔
기와
제네바
경상도
불평
농진청
##펙트
입김
틈틈
라이온즈
범하
##59
張
없앤
내재
북대
일임
전할
체벌
대표부
뜯어
비대칭
##ick
자작
흔드
등록세
분유
숯
대등
##per
도농
우발
함성
셔틀버스
입항
버터
는구나
찻
매스
불로
흡사
법인세법
썰매
체면
인증서
들으면서
웨이브
창사
최동
小
여고생
isa
격투
구술
멧
자니
경계선
마이너
3700
##저가
##버스터
사들인
##환자
호프
가산세
##자산
##무라
##매장
엄선
레이디
##버린
관습
배틀
여단
난제
입힌
풀뿌리
회귀
히말라야
mit
스트리
무르
곤두세우
챔프
##우치
교향곡
英
##돼지
알려준다
해산물
비상사태
유원지
중저가
꼭지
재추
몸짓
한국개발
1920
취업규칙
금성
양말
국제법
영업시간
국민연금
보합
해서라도
거미
아보
과학관
##오피아
노폐물
달릴
소기업
튜브
인포
##해하
관람료
콜로
화학제품
유람선
연신
치켜
던질
시식
꺼냈
나뭇
지녔
태화강
들인
##혈증
##협력
디딤돌
교통비
팰리스
##르드
고택
국내선
본명
뺨
기력
##카쿠
계주
모로
수입금
##뜨렸
갈지
안일
예스
엇갈린
항산
친해
희비
헌법재판
나타낸
해프닝
대진
쫓기
플래닛
한계선
정중
투데이
퓨처
필하
그토록
불이행
##정책
구심
아태
발라드
##레븐
반정부
특산품
특공
관계없
##문제
급선
무공
이케
고마운
재조명
분통
##상승
볶음
연장전
##lo
좇
##극장
##ith
십시다
양평군
발코니
준공식
범칙
후판
대표작
불기소
##명령
오메
950
비주얼
어처
프로필
값진
明
메릴
총출동
시체
앤디
씽
##int
간다면
나로호
충청도
전결
따랐
명물
승수
이통
사치
공생
플러
곧장
무지개
유스
쏠린다
단일팀
해했
포구
농어민
문안
어처구니
##그릇
과수
병기
퀄컴
가단
구정
불의
임대인
전학
난색
체하
소란
잔혹
퀄리티
좌측
애틋
티아
반가
보세
수온
쿠페
교전
모차
do
神
댔
긋
##부즈
명문화
세척
아담
특수강
가했
수석대표
dv
182
요코
가속기
잠자리
불명예
거동
벌리
ym
林
번호판
수용자
기로
세칙
접시
항공편
시외버스
발자국
옴부즈
임성
누리집
##회전
파면
afp
뒷면
문득
수유
도수
국가인권
##로워
브리지
##바퀴
톱스타
강기정
한승
사들였
스위치
##글스
항암제
부엌
光
##연설
고검
알렉산
서대문구
어항
국왕
누드
고엽제
굴뚝
영결
추도
벡스코
입법부
잠복
##겨울
uefa
초저
피드백
냅
다든가
변속기
##기름
비약
조선족
맞먹
學
고화질
리원
흑백
다니엘
##ean
현판
초미세
구출
학관
테슬라
내야
폐회
버핏
외인
대운
따름
##찌개
카레
비우
오갔
hm
바라볼
수축
390
능가
이원화
번개
대행사
상조
변함없
bi
##방망이
##시아드
177
친목
인공위성
##중기
노태우
##ome
고려인
야수
재배치
먹여
중과
희박
넘쳐나
트라이
164
다정
모녀
짓밟
매실
720
작업실
물러서
설명서
뭉치
광주은행
암각
온전
족부
화약
빨간색
될까요
기조연설
꾸몄
어린아이
선심
옥시
예뻐
떡볶이
틈틈이
차츰
탄원
##루스
돌린
말문
##pp
허구
안전시설
어묵
560
뒤따라
공공요금
응징
고국
우선시
맞춰야
데스
불합격
자서전
지급액
귀추
오미
##르바
임팩트
aa
개회식
승복
스팀
##도시
대손
도교
절세
종부
종묘
##브스
##가드
답안
양복
소나
미쳐
황해
가천
로워
아로
어딘가
노점상
여의치
뽑아
도맡
되돌아보
##데시
##준혁
##타오
넋
##ho
##주석
정찬
##십리
아깝
길목
##추럴
정맥
되살리
9900
립식
유리창
마블
원한다면
##세기
패한
변협
상병
고품격
167
명지
난개발
버려진
간암
소방차
수족
스탠드
줘도
미식
쫓아
자력
채울
테마주
교학
왓슨
##거지
도선
안성맞춤
굳히
민요
내추럴
dd
마녀
회색
완충
이동식
디아
분대
부여받
로프
방패
다각도
el
레고
탐욕
##위생
##정우
따라붙
발발
아야지
예식
흐트
더한다
전현
일출
출토
한기
트림
1967
닷새
제스
하의
학예
이너
넘어지
자카르
브이
랠리
남중국해
스포
완수
등부
향연
파스타
낸다는
2050
줘요
퍼즐
멜라
떳떳
문란
bu
공고히
##래프트
퇴계
음란물
매너
기지국
사상자
군림
비거리
찾아갔
철학자
본국
목상
포티
##협력기금
멀쩡
모션
##리스타
오산시
##무늬
이과
팡
174
올바르
껴
강습
의중
현빈
##ry
판독
호출
절상
저울
조미
##캉스
반월
바캉스
204
##타기
역력
##인물
노면
요양원
배지
오비
##교동
조선인
수녀
종량
어수
모독
바치
왠지
태워
연하
유업
성동구
생명체
광경
선구
퇴적
데크
들렸
캐치
건축비
김천시
##ight
돼왔
산화
순탄
요시
피치
산자
선불
한심
편집자
훼
급체
봇물
win
단시간
##모어
어울림
외로움
요직
드나들
구타
모성
한법
당헌
변별
선다
야근
어야지요
착취
대구대
오타
은커녕
基
수선
예절
티베트
고군
##지변
540
줄여서
메밀
부풀리
김황
제곱미터
wm
회자
꽁꽁
##학생회
총학생회
##버터
집요
##들리
암각화
스킨케어
짱
각막
nfc
앞쪽
이언
장마철
집행정지
천재지변
4200
##ory
삼계
설렘
부정수
갈아타
지방행정
합숙
돌아온다
여대생
행정청
너지
소자
금원
방미
배재
하필
뒤져
심의위
서동
강화군
노년층
달서
콘테
이정표
연희
잠자
##게이트
귀찮
##po
갸
짜여
dmb
백종
근래
닐슨
애착
타로
태평
땡
유명무실
수필
트로트
事
치마
애호가
wti
저수
남대문
빠짐없이
대산
앞장섰
으라는
##끄러운
중거리
마중
우버
토마스
동두천시
해녀
충청남도
면면
불감
맷
의령
단면
동법
아드
상담소
조개
쇠퇴
야경
토털
이유로
##글라
##저께
지으
470
준동
##덤핑
##거슨
##은혜
공실
rf
발짝
위로금
테일러
독해
방불
소방청
병해
서청
##이동
힘겹
660
##대성
단단히
봐라
반덤핑
살펴본다
모차르트
덥
광안
이기주의
힘차
사들여
페널티킥
도깨비
4600
멈췄
국조
샤이
찬양
퍼거슨
하노이
무모
문신
광고주
인화
진두
간행물
몰아치
##ock
짝퉁
스완
장충
미역
콜라겐
조정관
##지물
단련
169
김황식
프로세서
블로거
광양제철
뻔한
중성
##내려
행자
콕
##러지
업장
깐
볼링
윤활
스탠리
헨리
조원진
었잖
알고
힘겨운
ymca
위키
터질
몰릴
신랑
재물
원숭이
켐
신민
카니
姜
까진
값싼
넥타이
버젓
권한다
지치
초코
생겨났
징크스
교시
보청
뾰족
쓸쓸
깬
##지구
문전
여실히
꺼지
리어
목적물
##껑충
석부
min
기부자
고속철도
조림
인기몰이
조정안
듬뿍
자평
조급
161
미용실
척도
##ics
눈썹
사촌
질수록
별장
롯데카드
鍾
논하
손녀
##ung
하수관
감산
흔쾌
오감
디트로
철거민
악법
완벽히
느린
fom
##미리
끊기
더한
##월일
문방
북서
서진
자카르타
흠집
나주시
피해야
##래요
한샘
집시
윤기
총영사관
發
고속버스
옥스
불길
영일
투자액
무주
##유업
몰이
뽑힌
침실
감염자
이봉
광진구
남양유업
국빈
향서
##중일
적기
권력자
버팀
췌
하승
보인다는
알고리즘
##신기
tech
종말
적조
##효과
무인기
부연
선풍기
소추
경의선
##버려
day
훑
방황
풀타임
펀치
동맹국
신년사
수부
한국가스
오카
res
휴스턴
수로
여관
주의자
##미르
민망
드라이빙
미제
손아
상고심
결의문
기다릴
강병
플러그
현충원
스케일
최고점
앞날
요격
대출자
크라운
##다녔
ppt
춥
메타
팝업
천일염
외롭
프란치
##감정원
오락가락
김순
연꽃
계측
##수범
자화
간곡히
도시바
빵집
는지요
되새기
파우더
##데기
결원
##ife
##더기
남서
파운데
뻥
염기
작목
감사장
2023
산림조합
조찬
필로
oci
仁
ki
kist
합헌
전기동
##더미
독단
cma
배역
매트리스
토요타
##구조
가야금
타고난
##현수
4300
케네
곰팡이
박남
밑그림
이상득
교보생명
끈끈
슬기
충칭
페리
바꿔서
컨텐츠
한정판
##지방
저주
전권
새내기
감도
취사
배트
애경
##감사
소청
수기
정희
살펴본
형광
##문화회관
가꿔
신천
건드리
들어도
충전기
박자
전화기
디렉터
온누리
泰
닥치
퍼졌
복원사업
과오
때렸
해운대구
232
2900
냉면
영업소
완구
##국제
580
이러이
성심
##날드
바리스타
병장
어떡
교과목
출범식
눌렀
경지
황태
트래픽
갈리
석좌
영통
##프라노
싱어
협주곡
돌이켜
찜질
광양항
##트릭
방글라
예방법
##대사
아디
일거
##stem
마그네
블루투스
발단
화단
흐른
직간
구리시
##다드
##러기
내분
권위주의
일전
고의로
관현
기념사
금오
급자
트랩
험난
교묘
발기
언뜻
요일
가다듬
생명력
원할
생각나
아슬
투게
경화
사시
자위권
판매장
스모
몰라요
성북구
star
박신
사병
중처
커튼
일렉트로
##pa
원은
영해
iso
갑니까
완결
포레
맞히
상쇄
헤매
엔딩
협소
##자치도
제주특별
끌어안
버려야
껑충
덕목
소총
브라이언
투게더
보청기
서사
칸막이
##교사
바자
싱싱
솔선수범
行
받아들인
##북면
감식
담뱃값
吉
샤프
하태
달구
보처
구속력
병해충
구설
##봐도
重
안간
인권법
알프스
식기
최수
된다며
심리전
타파
재단법인
##오른
좌초
이러이러
##주니어
안간힘
지정학
월별
알제리
막스
절하
아바타
뗐
fda
오메가
투표율
얽매
애틀
왕세
달력
차단제
4400
날린
빼돌린
본드
봉착
엄밀
후드
##메라
케빈
정유라
##을까
자가용
솔라
전청
하급
실망감
숏
하룻
시민운동
익혀
영결식
체포영장
어려워졌
국판
최철
##널리즘
동학
##티시
춤추
혈중
어울린다
따질
島
만인
설전
유찰
밀라노
직간접
스마일
본안
한단
본다는
브릿
치수
일석
은평구
그려진
시보
큐레이터
ke
찰스
목걸이
어떠세요
륙
줘야지
히든
건재
층간
매끈
경리
찌르
최전방
가져갈
놨는데
이권
편곡
글라스
배합
성기
탈레
무작위
찍힌
지켜봐
갈증
##동자
장정
개구리
중환자
건당
입회
대구은행
연합뉴스
토건
반대편
부딪혀
리가
173
황진
##총재
보사
싸워
낙찰가
드러낸다
레슨
에어백
관대
두통
리턴
알펜
##규어
##ead
고뇌
오명
안내판
샹
김도읍
찾아간
케네디
트인
하체
부총재
문화방송
수가
안함
조그마
쑤
서슴
##고속철도
엔젤
할인점
ars
##바이벌
섹스
와도
혹시나
치하
평촌
구르
##여정
될수록
떠올렸
내무
정거
가산금
섣불리
내쉬
애틀랜
새기
대학원생
연대보증
일절
모아야
개보
응원단
토론토
몰아붙
센서스
207
교권
현주소
이즈
상대국
고칠
영아
휴지
내보냈
##no
##하천
비키
처신
볼턴
장지
후진타오
##올라
차출
샌디
##닐라
레몬
제과
받들
부럽
##ust
광업
목포시
다케
비호
였으므로
##플릿
실외
배고
분원
대일
엊
##사키
녹십자
##잔치
신당
라마
호우
진입로
폴크스
야산
옵티머스
##드래
대요
심결
또렷
풍수
입담
잉크
가중치
그리움
##아트
리빙
바깥쪽
부정행위
민박
탄광
##지우지
좌지우지
드레
리먼
독재자
기념비
훤
열량
이군
저온
농공
템플
##라마
bs
더디
목욕탕
방파
##아먹
뻔하
서경
급박
재추진
전도사
커피숍
##변제
힘찬
lcc
짊
부경
외우
직불제
더샵
하룻밤
흐리
라틴
의례
##ign
##주부
총사
춘추
서두
지천
##에이터
제게
이태원
재규어
영정
정윤
##아산
##틀리
중세
잇따랐
도예
완패
윌리엄스
빈민
171
다급
준법
육감
행령
배워야
##vc
자형
fl
백수
버팀목
공금
발전사
생겨서
ca
요한
출점
세난
융통
스팸
켈리
선천
시모
의장단
1964
양조
연구개발
등기부
마우스
압승
역전패
조인성
일례
##각층
안구
레슬링
법질서
부유층
정거장
각계각층
기록관
##크림
미연
카톡
代
실화
##블로
권리금
1961
봄날
##man
쿠키
식료품
니혼
분만
대한상의
막장
바흐
민원실
산골
불러올
410
이승훈
에너지원
방위비
공제조합
교문
친밀
약초
사와
##아티아
##rp
허탈
官
빌보드
1966
관중석
진흙
차우
홍정
두터운
버젓이
알아볼
쪽지
##윤근
by
머지
어려워질
208
지은이
발등
미혼모
회고록
여군
트레이너
##보호
뼈대
튜닝
##수아
##폴리스
챙겨야
아랑곳
love
원외
184
베이커리
승합
종주
초고속
해독
괴롭히
배출권
청자
##톡스
최윤
##카스
ta
불감증
주간지
갑작스런
##분투
##바위
일진
물길
엊그
별정
스트로
내려간
신조어
늑대
편취
퀘
##코지
커트
세자
철도망
저작물
##곡리
미룰
##회계사
런닝
183
브랜
패전
256
위법성
팀워크
자랐
경찰대
외투
운전석
錫
##부산
##아르
비켜
김광석
남방
에어부산
진두지휘
세목
돌아간다
世
무비
가져갔
등록제
상하수도
심대
닥친
졸라
카피
vod
##ug
외장
암세포
끼쳤
내딛
쫄깃
차로
허덕이
##손실
양분
군무원
구상권
법시
##갱이
놓이
스케치
뼈아
황산
워즈
##일비
다섯째
先
##걸스
둔갑
습기
분출
띤
시마
오릭스
##테리아
거침없
배점
섭섭
맞춰져
ᄋ
##제과
nas
결속
부나
##러니
기체
합의체
행정학
##감독
민방위
선교사
우대금리
매점
윤창
굴비
경산시
블라인
인천국제
진천
화원
수익자
##회원
##ide
와이어
대경
선취
##자동
시발
정량
승부처
경축
궁중
지역주의
둔치
후단
탈레반
최원
지쳐
재계약
골반
##대기
성우
##스트럭
우편물
모국
무릅
전략산업
##덕여
체대
슬럼프
원주시
##노동
##물살
급물살
조진
슬리
상쾌
정품
기술료
가까스로
신호등
경호실
계량기
행진곡
경수
흔쾌히
아이러니
진하
차남
켜졌
장학사
똘똘
선충
제트
펴냈
善
기약
당락
##pg
임재
멈춘
넷플
넷플릭스
금값
대관령
실추
호세
##임새
혼돈
내려갈
상당액
용감
결장
##보험공단
망고
펙
시금
계획법
여하튼
들끓
리거
ser
간척
지적도
기억력
터뜨린
텍스트
토론자
교제
스크랩
등대
퇴거
지하철역
직시
태생
프렌즈
드릴까요
창피
향방
엘리자
마쓰
밀폐
기치
백미
무용지물
러스
관계관
준비금
카를
알펜시아
위쪽
이코
프런트
고은
첫선
재임용
매끄럽
귀엽
백남
다니까
자위대
趙
isd
名
##행선
피플
##ud
홍석
북돋
민변
사탕
##선스
교육자
김근
의리
정개
빠져들
fo
극소
모유
흉내
일과
기저귀
라이선스
시베리아
박석민
지중해
앗
성의
산천
딱지
맞이해
교협
병역법
노량
군함
rpg
##더슨
##시경제
##코비치
ind
거시경제
王
유임
##검사
캐디
박유
##따리
장재
##해진
편식
본보기
1953
228
선입견
칫
지폐
피디
센카쿠
접착
애프터
흘린
머지않
##심증
군비
215
승강장
너비
폭등
부호
산양
땅콩
보따리
정승
행성
##니언
뜨거워
##브라
오염원
거침없이
##hz
위아
정읍
준위
그린다
축구단
발신
##렁크
갈대
##로라
법문
버틸
연매
엘리엇
튀김
아이비
체격
##델피아
산학연
원유철
오재
##코르
성탄
절호
통용
##드래곤
##부동산
##스트럭처
컷오프
정략
최연
내디
도하
가두
명태
올레드
##갈비
홀대
아웃렛
발현
정례회
상무부
자유형
남길
역차별
고군분투
레버리지
우익수
트렁크
멧돼지
산간
무등산
##나연
납기
학번
강박
##하라
딕
투숙
##틀러
투혼
정갑
외국환
비씨
다룬다
공신력
동식물
##내믹
다이내믹
에볼라
열도
출근길
5600
빈티지
서신
베타
스포트
fomc
백일
黨
호두
문경시
총영사
이뤄지면
노영
자임
채광
빈부
콘테스트
평안
179
비운
근데
死
##처치
지름길
##세웠
원소
블라인드
기색
##해튼
정부군
면하
홀몸
##랑카
내버려
##탄불
서바이벌
송기
211
무너뜨리
이스탄불
데모
오롯
어리석
義
끼쳐
싸늘
복고
면죄
바랐
탄약
밤낮
수입액
후견인
평택항
방공
맨해튼
돌아선
##파니
분말
##ical
퍼펙트
사우나
취약점
위드
야구단
코웨이
보듬
수의사
소프라노
##전환
부산물
206
클레이
넬
기우
동강
맞아
약사법
펼쳐져
추천서
한결같이
뵙
##던트
##ina
매달려
##티넨
수리비
링컨
불순
아꼈
움직인다
自
통했
하산
이뤄냈
회유
한한다
고점
尹
논설
오븐
초동
비명
재의
뒷전
각성
##쿠니
평화상
얼핏
경동
문어
산길
후자
##종일관
시종일관
##end
배열
유니크
glob
맥도날드
容
페더
크리스티
永
빗발
연수생
혼수
급식소
종량제
181
##교섭
원양
줄리
서리
경남기업
피폭
똑바로
묵살
송유
장구
##프레스
어수선
요청서
저번
之
변할
생업
잊어버
010
kic
매거진
##불명
투스
풀무원
마르크
##드려
강연회
근린공원
구부
武
홀드
고흥군
브릿지
강재
응대
예기
저질러
분임
pos
동작구
통신업
##미술
꺾이
평온
최고령
핸드백
무도
희석
기억나
꺼려
노블
frb
인민군
분교
##데없
조목
균일
뒤섞
스핀
정책금융
진보당
농산
변비
중용
fed
만류
무라
이제야
##시브
급상승
전소
대리운전
어종
건너편
동창회
쓰러지
파국
어긋난
지나갔
소임
4700
주택공사
##니엄
이데
특선
놓칠
웃기
##다이스
측정기
##능력
직관
회계사
동이
딱히
보루
수하
귀책
금물
富
내뱉
류승
슈퍼맨
훔치
##샤오
##매기
유민
칵
dvd
특회계
김강
순환도로
불명확
시장법
무더운
개인택시
##스윙
편히
수용소
주경
국론
내국인
투표용지
가람
kis
우선주
슬라이드
코스타
손금
로비스
##동아
##일레븐
옷차림
이뤄낸
클라이
##폴트
증발
프리킥
##sa
문사
알찬
급선무
남한산성
끼얹
##폴리
봉지
여소
640
금호산업
##민주당
대덕구
오뚜기
통기
##유리
번트
첼로
온기
로테이션
메세
슬램
화합물
##폭탄
광주비
불린
농업용수
유모차
점하
여겨졌
정개특위
지도층
느껴질
분수령
코스모
##질러
##네이션
맞물리
출연료
살펴봐야
비쳐
수화
org
변별력
신다는
저널리즘
눈가
209
570
구대
반세기
중흥
퀵
젤리
스포츠카
질투
강대국
윤동
블라우스
말미암
최고가
최준
모른다고
안테
주조
십상
칫솔
화염
어획량
머금
파란색
흡연자
부기
편집장
추돌
실용화
##ff
방관
산실
체고
epl
이맘
거르
칼날
모여들
도사
홀리
아가씨
자치회
##조목
투성이
괄목
식음료
막아
매겨
필립스
##모닉
파편
필하모닉
##구름
해상도
스테이지
者
일까요
면죄부
권순
손잡고
tip
##친화
실거
노동법
알아본다
늑장
독선
포문
환경친화
江
당규
면허증
컨트리
황기
다진
낙폭
역삼동
김봉
낙엽
명곡
메워
트레인
산심
콘도
##애미
틀어
245
스탠퍼드
남인
매료
심평
마이애미
환한
5200
with
느냐고요
##tc
순손실
수두
알렉스
##드기
푸조
등산객
보온성
체인지업
##관절
준칙
갈림
노약
스몰
##년기
하중
소울
친다
특채
최나연
뗄
급성
로망
도시민
경악
크롬
받아
절실히
고속화
벌크선
공상
도로변
들여오
9800
승부차기
밝힌다
wp
和
##우회
스트리밍
인분
즉흥
증오
겠다는
아테네
어이없
분규
시그널
적나라
마흔
고물
베이스볼
무술
항균
그럴까
순익
라거나
##중간
미포
막아내
맞불
디폴트
구수
##호흡
제비
나사
가창력
결석
유닛
불량자
사비
분홍
윤진
승무
얻어
원비
추론
패셔
##만수
거래세
싸울
##푸르트
##라기
흔들릴
##qu
수건
더라고
메드
쟁쟁
주정차
김옥
변재
검경
로얄
보험계약
비상시
한화건설
증강현실
샤넬
사과문
##ream
사칭
폄하
섀도
눈매
공산품
찔러
☎
받쳐
제물
##거래소
etri
mnet
점자
턴키
##열차
맹점
수난
삼계탕
상주시
김재윤
어려운데
끊겼
스테이션
윗선
촉박
모나코
질감
##성기
특활
##렌트
구토
가위
발찌
가릴
##벼락
황폐
가곡
사귀
쓰러진
후발
##타페
채식
대니
대파
따스
물기
흐뭇
켠
##투어
##orm
음료수
mwc
대운하
eg
견인차
##데자
선급
안테나
##데자네이
리니지
자라나
##ction
off
던스
졸음
화주
끼어들
동갑내기
양곡
정일
이재민
##저축은행
짬뽕
아래쪽
제니
줄다리
애틀랜타
우익
팸
중견수
무릅쓰
재정난
슬프
췌장
동대문구
##대표제
박순
##신라
가자
##데자네이루
베풀
포천시
유추
건의안
##스테이
바이저
철탑
학연
밀양시
했으면
##ant
##심장
망각
쌀쌀
줄거리
호텔신라
##소싱
페인
강경파
아웃소싱
왕래
개신
단종
수모
견적
괴담
##바구니
조목조목
겸하
아인
관보
바오
베어스
가목
글래
이뤄지기
##보냈
##문서
팔달
어저께
두어
장밋
일본식
##교차
락할
정해졌
##르르
모친
상추
줄다리기
허영
달아났
미일
사익
항이
급행
커스
fbi
굴곡
개탄
접했
정적
국문
위험물
##인회
무기력
생동감
630
영양사
갈치
달라요
폭파
출하량
가금
강영
고농
구급대
손잡이
저게
트루
레이크
다가온다
키움증권
감점
부피
섭씨
##콘서트
구매력
##포동
식견
울렸
장석
무너질
풀린
니퍼트
서킷
한문
헬멧
구로구
1955
가교
만져
미뤘
위급
212
아낌없
지바
이만큼
임태희
관악구
와이드
폭발물
죄책
호환
고찰
분신
##올로
uc
기발
옥천
철도청
##진진
내려다
플래카드
##부림
교총
따졌
카페인
민낯
리얼리티
견과
6800
조광래
프라이빗
오클
216
판가
##ower
다닌다
담아낸
로우
신드
##tern
농축산물
솜방망이
치러질
복음
수려
어미
봉제
써도
##슬리
##지도
과중
빌려서
바꾼다
##ish
가도
##추위
제패
##네이터
대추
직렬
로밍
장항
매립장
도원
열중
선착장
히로시마
##고시
진다면
사회생활
편승
##수무
노약자
행각
전통주
홍종
반송
영화인
처한다
불이익
회장단
매회
올립니다
nasa
각축
쏠쏠
오동
뒤흔들
브리티시
##용석
백승
봅니까
정홍
불매
중식
돼온
##렉트
만도
처녀
소말
상장지수
바리
청과
comp
경이
안정세
유니온
외식업
치웠
형질
임진강
##당선
##킨다
275
찬란
하토
방심
전단지
단초
애환
근거리
겔
저층
지열
영화배우
개축
외계
키보드
유니버설
살상
best
##기획
##들였
##뱃길
##소타
나이스
아라뱃길
실탄
리디아
후끈
체육공원
플렉스
언론계
이재정
아냐
갈색
일색
등장인물
인피니티
기왕에
재심사
중첩
저작권
흥미진진
큼
식스
수형
##스트로
노장
사대
타사
경주마
##박자
오리엔
원정대
꽃피
반품
변인
장밋빛
탄원서
파이터
합의부
##사업본부
구심점
재향
에비
과표
벌어진다
모기업
고모
##화학
구획
음대
단열
재투자
##르도
##미화
이케아
##olog
소매업
송지
골대
홍일
510
하이드
##oul
노컷
노컷뉴스
응급처치
성곽
자태
nhk
빠진다
절경
싼타페
##악산
불타
예멘
ing
누진제
공영주
신드롬
city
##ore
후반부
떨치
콩나물
대차
다이노스
아역
오스
##orpg
btl
지방대
로션
관로
온수
시끄럽
늘어놓
갈림길
제일은행
잠금
꾸렸
오월
차도
신분당선
한약재
읍성
234
냉철
통감
끝낼
수행자
미네소타
나아질
한국군
보문
되짚
일식
235
누차
부조
자연히
호찌
신라호텔
##맥상
애국심
소송비용
이서
입혀
신승
트윈스
8800
##책임
속상
카운터
알차
한빛
휘청
검문
민회
680
첨가물
##종환
아주머니
금주
인도주의
214
얄
반짝이
##카메라
캔버스
지독
메커
고난도
보비
가로챈
롬니
루스
어설
온정
홍진
다가서
타일
말려
상소
시구
무디스
##시울
##테스
kf
눈시울
후예
##현주
qm
다원
조중동
##서니
폐차
246
기말
장진
사조
트릭
반죽
선결
##ans
아비
초조
##저것
이덕
이것저것
갈래
##시계
##ace
다수당
떠오른다
##꼬리
작업자
귀결
노후화
mk
대서
매혹
정범
csr
관동
출렁
통영시
하토야마
파일럿
렉스
부딪치
문희상
인색
중론
그려졌
임동
초년
폭침
단체교섭
##세라
닉스
다쳐
힐스
유흥업소
야스쿠니
식욕
생리대
대별
세팅
사슬
스며들
장서
빅리그
법치주의
카누
##바오
끝없이
밝혀져
관급
파파
루비
스카프
양일
회원권
나카
세비
늘려서
기록원
슈트
때린
떨리
건축주
##ual
##대포
미끼
동천
달아나
숭실
서민층
갈망
골머리
눈덩이
귀향
삼청
스콧
빼앗기
전세가
광고비
ys
중력
트램
##좌석
일동
달라서
볼리
진드기
단발
전언
리메
##웃음
소령
다이렉트
고기압
소장품
순국
나온다는
요정
다분
쿠팡
##칠성
760
롯데제과
김성식
##예진
구진
##nc
도도
spa
##시공
감정가
책방
을지로
배당주
222
갈아입
명작
불면
독수리
엄연히
lin
구단주
외파
감원
응방
226
강민
퇴비
mice
군산시
보내왔
##킨스
리허
##부대
사마
연사
원색
뒷좌석
어려서
악역
올려서
art
한산
바란
구속영장
실루
연작
빚어진
##렌스
비목
야후
반향
##팔트
대연
외제
아스팔트
약탈
244
요란
주미
지어
빠져나갔
토공
머문
##평동
시름
야구팬
영천시
우제
사천
파헤치
주창
귀금속
5800
장상
##티모어
점막
의뢰인
매서
걸으면
침출
한가위
##히드
국내법
##푸스
만만찮
볼티모어
사용법
포근
자생력
##혈압
구룡
공예품
라임
던데요
브릭스
계도
소말리아
탑승객
답했
싸웠
풀릴
299
중개업자
좌익수
현대아산
몰아가
각본
전쟁터
주안점
여상
캣
식비
굽히
친지
재팬
항공권
이헌
잉여
개신교
상급자
##푸르
이터
##김치
석연
냥
##수무책
속수무책
##제국
메커니즘
##변속기
목조
복역
##마차
합심
비워
등단
빛깔
재수사
하동군
학생회
##oa
내려지
버지
골잡이
ts
냉연
시험대
##ka
금빛
미켈
성악가
치약
490
life
셰일가스
##노미
##종합
병풍
진중
합법화
biff
##막염
기쁜
윤관
근무지
소형주
판매액
##아슬
비석
아슬아슬
뇌물죄
코딩
우표
저우
iii
뤼
로지
다지만
실루엣
범법
후세
분립
sci
앞세우
##투합
의기투합
넘어오
무안타
시트콤
##창구
기산
눈여겨볼
##상조
한선
218
엘시티
부주석
이해도
##춧가루
태운
곶감
조준
6600
국과수
쿤
북스
##티넨탈
빡
쓸모
생후
육안
베르디
##vo
둥근
우먼
이사국
천차
케인
특파
##다이
내야수
##커피
##her
간대
클러
불어나
기준일
3900
방조제
빼앗긴
수재
전석
도금
미라
역비
정안
번쩍
##농사
배아
현혹
감춰
식도
희생양
굴복
러블리
절전
어려워서
런닝맨
송신
버스터
신가요
##모로
신창
3100
변호사법
##미화원
찬바람
좌장
강제집행
동떨어진
주먹구
무급
통통
4900
케리
박혜
밤샘
잠잠
##사이어티
윈드
사유지
커녕
213
난사
칵테일
코스트코
##레라
##배기
생산직
나토
환절기
대행업체
##의식
설욕
jyp
이용해
서머
오디
cns
##승원
빠듯
달라붙
근소
북동
상존
유례없
알아듣
앞선다
피부염
캡틴
이북
집권당
살림살이
불미
결정짓
공심
놀라움
대축제
연습생
##스토리
항아리
삼촌
콜드
드로잉
경남대
상동
수액
다가갈
격투기
특공대
선우
경도
걸으며
구조대
어젠
완파
카터
비키니
양방향
만년
기질
정박
나와요
목회
301
골수
##임수
재인
교학사
리허설
상암동
스리랑카
5400
탈핵
급진
정해야
저술
빨리빨리
움츠
큰손
피서객
태양열
더비
사나
알카
오성
구슬땀
외연
##토니
공증
발사대
표하
뒤졌
점장
청동
졌으며
테이크
흔들렸
경치
영종도
재촉
##리니스트
미련
공전
호실
가요제
사인회
인력난
삼화
자청
장실
활기찬
물거
종래
접해
편백
청신호
고어
모델링
에스티
권했
기명
퇴색
홍역
흔치
해조류
##번스
##작전
도안
우기
도무지
살려야
##마당
빙하
습격
애교
배차
액자
어긴
육회
인멸
중전
깨달음
봉중근
오자
시기상조
델타
bbk
찾아냈
내공
쓰리
두드러진
우완
금할
특별상
환차
서둘러야
지소
tim
정치학
남궁
로빈
블랙홀
말린
일깨워
저점
백조
분발
들이받
더듬
수놓
소문난
5300
qr
밥그릇
방탄
255
라돈
제프
780
pet
논현동
송강
홈피
끝난다
엊그제
검수
모음
워커힐
들판
천호
이리저리
양희
즐긴다
운반선
경시
신간
신하
잔존
달아오르
##ree
심히
특파원
암울
벌어들인
##애나
안부
소공동
감가
이맘때
함부르크
팍팍
나선다는
밀려나
송진
괴롭힘
미공개
공공연
본다고
유지비
##냉키
산다는
##케인
자아낸다
들렀
유종
데려가
재고량
##버시
마리오
밑바닥
##폐율
입출금
딤
리퍼
버냉키
상징물
수영복
##결제
범람
쏟아부
도핑
침출수
여러모로
내줘
초임
건폐율
철강재
한없이
243
문화전
장유
돈독
은혜
장로
opec
무궁무진
나온다고
대도
어부
클러치
##런치
전곡
주거비
트리오
현기
금감위
망설이
속담
취임사
##니치
하강
bus
친문
mro
급체포
존폐
칭다오
퀀
함경
차감
호적
크리스토
질식
할인율
##소닉
분분
숙여
##클린
단상
차마
터빈
여긴
패자
카운티
나눈다
샤오미
붙일
그지
설시
자동차세
1940
##에이티브
##계선
##스럽
임신부
빨간불
끼니
숭고
gmo
련관
황희
발자취
흐를
오색
원생
fun
파이어
나위
변전
안배
꼬리표
##혈관
식물원
버그
수저
굳건히
총감독
레퍼
670
살아날
임했
생육
한적
리메이크
강운
교신
코르
테헤
폭소
ufc
힐튼
려다가
상보
노량진
이글스
서현
모피
산맥
납북자
담아냈
물거품
##클로
느닷
로버
요코하마
별칭
동고
항문
용자
rec
송광
망막
전범
##코트
관세법
커넥
신사동
중환자실
비산
없앨
알카에다
박힌
사처
빙판
놀랄
227
테헤란
도배
성범죄자
따라오
군주
글귀
떨쳐
증산
무학
방음
차갑
정신력
스메
잡아가
직군
감회
건설업자
kp
공주시
명맥
불모
보험자
지탄
투싼
다니까요
생산품
서약서
엑스코
##비슷
황인
##tion
임관
패치
트레이딩
msc
유배
한울
고만
역경
완비
##축구협회
막혔
comm
##만별
천차만별
##erg
남강
동독
맴돌
들이대
어서요
뇌혈관
사살
냉난방
창건
결식
어벤
한신
해맞이
명료
620
##여객
건과
효도
출연자
낱낱
이승우
ifrs
심이
방해죄
iaea
레퍼토리
강유
구세
내홍
단통
갈렸
광산업
221
김건
전구
폴리에
##서기
##anc
단맛
바비큐
시운전
마셔
강화도
최고액
금치
사르코지
des
신안군
어려워진
티아라
소풍
식초
재선거
제너럴
윤정
어학원
주치의
치러진다
##are
방카
본체
사슴
##천년
꽃게
인부
배상액
윤회
갇힌
부단
확성기
기할
미소금융
판매업자
의석수
아치
인더스
충무로
관치
고소장
정형외과
제인
벌어져
퐁
##플러
행인
변화구
빚어졌
##박질
문창
지류
파이팅
1954
천변
하얗
댁
현지인
오거
광주시장
리코
기립
유턴
풀렸
224
회도
꿈틀
참외
처절
##시네마
배상문
##보도
MHz
두근
이어폰
컨셉트
파나소닉
진가
교수진
노릴
봉산
새천년
##날리
억새
중심축
후반전
980
소각장
동방신기
변혁
정강
##라이즈
티볼
태릉
혁신안
국무회의
손꼽힌다
랍
rc
퍼스
크레디
##sh
말썽
부침
사해
상표법
읽힌다
진학률
왕세자
합성어
##공격
미신
연료비
연단
##슬레이
교무
몹시
아무렇
향해서
지명자
시발점
숙이
전면전
중형차
라이스
숙박업
##모닝
난동
굿모닝
테너
##그마
##노선
겸용
7800
내림
장본
포맷
던진다
##라이언스
저울질
앤서니
다다
평균치
##체류
미백
불법체류
##올로기
물려주
악단
강력범
무난히
음악인
금남
날씬
발원
253
베니스
인사동
마크롱
유조선
봅슬레이
안영
386
오창
##각색
내뿜
냄비
셔터
어플
총국
mt
강진군
넥스트
당파
현정
휩싸인
##버렸
공산주의
쏘울
조끼
서프
피처
보호관찰
승합차
고춧가루
믿기
베개
별미
부족분
키운다
뚱
황선
도운
상도
영호
피카
해물
바라본
둘러싸인
이이
원혜영
pt
고준
예고편
##무대
예사
뜻대로
진정서
##니카
##사건
##저지
채찍
헌금
끌어올린
앨런
숙식
마장
빅스
테크윈
비어
233
지선
전용도로
가까웠
매도인
청량리
입니다만
##이조
경락
##스피
해칠
현미경
묘소
어울릴
한바탕
궁궐
필사
리라는
사무직
지켜온
가성
헤르
김영우
배기량
렌트
포탄
제국주의
sec
협정문
매설
개별법
갈랐
바그
##누이
였음에도
궁합
정평
뱃길
서독
정봉
불붙
스킬
픈
조재
콤팩트
몰지
선가
##불이행
오프닝
일단락
제제
##레탄
안재
세르비아
주세
6700
##방식
설계도
절충안
##퍼레이션
낱낱이
정보국
부전
일어난다
신일
빅토리아
이요
217
루니
고해
여념
고시원
보미
노랫
민물
보시
수전
304
경마장
외로운
자상
##afe
베이지
다독
참혹
중령
필러
무방비
찍혀
기다린다
대놓
유채
요식
정구
연천군
구위
석회
##카운트
단신
발포
부랴
기프트
체육계
애칭
##즈음
시합
아미노
##둥성
정론
로페
빈약
책장
거래제
##카페
싫어
최단
볼까요
##할린
헬리
레이트
얼른
일구
현업
드러낼
터트리
골프클럽
비속
출정식
송재
탈법
수증
조강
암벽
베이비붐
최루
탕감
중심부
골다
모진
한중일
교동
프론
파나마
##서리
정과
원미
가비
고증
울진군
예대
임정
장하
bsi
##경영
앙코르
프레시
tw
오라
생색
sat
우롱
피소
물들
변기
워런
일러스트
국력
일찍이
태안군
도표
도망가
7600
모빌리티
송수
약수
288
경부선
터무니없
윤희
달린다
수작업
##ccp
가래
쓴다는
##링크
이을
타지
불쌍
진달
교보문고
윤증
이질
확연
생겨난
##gi
간간
mar
##노조
민화
수구
체리
서상기
처방전
##서울
총무원
크리스탈
##pn
반미
##ru
238
갖춰진
봉안
포워드
##공증
감봉
강모
골다공증
어버이날
맛봤
문언
기출문제
장본인
재회
스프레이
유원
흥겨운
양재동
외지인
리티
태연
맞닥
빛났
몸부림
일석이조
남한강
배기가스
난도
명세
무임
하이패스
소이
피살
학벌
1910
석탑
울창
법무사
##vel
덜미
야크
왕후
박삼
징병
신용장
동승
녹취
부심
슬러
흑색
한마음
요충
코인
포위
##캐스트
수비진
민의
5700
##연시
놔야
떠들썩
도리어
붙여서
려니
위령
행세
계양구
살펴야
케이프
연말연시
판가름
반주
다단
동수
카니발
불안해하
설마
시의
미비점
삼거리
쯔
령도
가로지르
##짜기
밋밋
숨쉬
남겨둔
오존
##엔지니어
##엔지니어링
##수정
미대
수관
투영
칼국수
월남
정육
254
스와프
로그인
##뛰기
젠더
##바라기
답보
ipa
배임죄
버라이
마주치
회선
지도력
알라
앞부분
으신지
마모
252
비비드
은행법
에드워드
현액
소실
265
##로로
열렬
임도
송전선
부동산업
맞아떨
##mp
##바리
오제
송혜
##비어
공히
우왕
만든다고
방광
컬럼
걸어온
나올지
패기
##쿠젠
매표
사할린
체육인
롯데칠성
밀란
적격성
##태현
불운
진원지
남상
승려
##장고
되돌리
배급사
비씨카드
##마니
궁전
애견
가공품
기본기
블루베리
선종
윤호
발진
물어본
노역
바이크
6400
##구멍
후송
붙여진
영양분
인내심
##앙스
아기자기
219
음악제
고삐
당적
칭하
표고
공허
skc
옴부즈만
빙수
역관
외국산
다면서요
옐로
내민
성신
귀순
배설
도전자
229
다방면
서커스
##관리공사
안기
ktb
무주택자
국밥
넓이
라파
도미노
생식
낭패
포터
격전지
올라선
재향군
부세
심부름
누계
심할
알로
740
뿌린
못한다고
바티
서울광장
dis
남해군
찜질방
상체
영회
보통주
동동
휴면
상용차
동절기
출자금
캐머
시사점
솔로몬
공유제
김춘진
이토록
줍니까
캐리어
블레이드
꼼짝
암초
야전
예찰
ra
세계사
둘러싸여
브라우
쟁취
톈진
세계관
일변
종아리
뭇
신음
키친
##부랴
고주
병살
은상
##자치시
브레이
초상화
철제
폐막식
7200
열의
소인
흠뻑
팬클럽
위트
활자
ucc
장주
##나갈
심장병
부랴부랴
비문
선석
이드
극소수
스러우
극지
약가
행해
묻어나
uv
이자이
금수
샤이니
스완지
쁘
조병
허다
깔린
가한
덮개
없앴
재혼
머스크
감호
끝장
물감
세례
검정고시
아웅
일침
스니
날렵
뭉친
231
벌여왔
노을
가을철
모하
마그네슘
성행
연합군
호찌민
6300
플레
한센
223
##천연
되레
입증책임
구운
사부
뻘
730
샌더스
나루
나리
서훈
임원진
부쳐
모자란
토박이
외침
그만둔
좋아한다
##지영
덕수궁
음색
기네스
밀실
끌어들여
##이브로
와이브로
노부
##필드
원용
송은
배전
유대인
##통행
행한
북상
##폐공사
기관사
윤장
출장소
자격정지
##월동
벌점
nat
어지럽
덤핑
몸소
죽여
휠라
기자실
윤병
out
가감
가석
밝혀냈
뛰어올랐
찰리
강제성
상납
만취
1588
연필
법무관
재처리
승산
징검
코자
횡성
왕비
가르쳤
애드
예감
였으니
관광호텔
##드레
에쿠스
니코
구먼
##영수증
이동하
hy
285
ios
선택제
헷갈리
휴게실
개강
행량
황주
옵니다
김응
빈발
범칙금
포장재
##ble
거포
뉘앙스
잔고
주영
토머스
난임
뛴다
미취
추인
시몬
예총
풍산
248
루마
264
영수
신용도
정민
검은색
고분군
예술제
의정서
혼재
경조사
토착
##자동차
쌍꺼풀
콘서트홀
단번에
아사다
바자회
##카와
예언
오미자
지킴이
경무
불똥
뽀로로
##용준
수생
체급
##키오
변칙
수줍
국인
숨져
곱하
재치
##는데도
매장량
##철호
원문
지하경제
손맛
헌병
덕담
별반
빽
산유국
##ement
열혈
부지런히
목도
서영교
##골목
충정
유량
캐머런
마음속
송혜교
연착륙
포고
나고
평시
##카이도
회계감사
문호
병변
이구
껍데기
진달래
떠오를
레버쿠젠
고선
묘미
##홍준
룡
모종
##멘스
기암
1958
신학기
엄벌
파괴력
배운다
##소비
멸실
우후
삼척시
해바라기
부원
np
새겨져
원한
이택
젖소
6200
hsbc
##디다
##슈타인
금천구
모란
타미
천시
탁상
사직서
공분
part
면사무소
애용
상암
천상
쉽사리
이오
뼈아픈
홉
##무역
미즈
복습
수세
문제집
한국일보
룽
국행
굴지
최은
전유물
넓힐
전서
생깁니다
그르
철책
##왕산
뚝심
##여름
독대
상대자
bw
소나타
아리아
적료
품평
재료비
##치아
강운태
고함
찾아올
순교
꿰뚫
뉴저지
역주
해사
과당
받침
퍼터
현미
가석방
동대구
선데이
애국가
일컬
징검다리
리얼미터
가변
산문
펑크
고혈압
내고
국책은행
폐허
질까
나지완
도태
전반전
진통제
산동
열대야
중독자
날카롭
##냉장고
손실액
##례문
수취
이겨야
##ile
랭크
서성
상한가
어촌계
일신
전혜
본격화
실력파
프리랜
##메스
깨진
탄식
한일
이스코
둘러본
임할
조망권
국격
양강
포브스
철판
내세울
##소니
아지
취학
신데렐라
영조
셰어
응할
결승선
어머
휴학
후임자
봄꽃
act
므
부마
##부리
##카이
발끈
절규
##조리원
라이더
라니까요
고참
880
절차법
올림피아
발화
지낼
학칙
경제특구
부디
오답
연고지
중장비
자명
토스
불면증
유경
##오피스
자유투
집배
1919
##더니
파랑
색소폰
비스트
연다고
##의회
고승
뒷부분
수두룩
장직
행정심판
점유자
망원경
##당초
청룡
흐트러
##뮬러
백석
남향
발하
감시단
집시법
##쇼핑
김이
부탄
268
당무
메이트
브렌트
전초
##스케
거지
빡빡
##동물
봉인
성비
다스리
소용돌이
지산
840
굳혔
단비
##창민
시프트
틸러
베이직
##나비
난조
해부
작인
good
프리랜서
굶주
최명
퍼붓
##에른
늦출
236
깜깜
섣부
첨복
##갑시다
발기인
##러미
심사숙
합해서
아람
혈전
심사숙고
찌푸
청호
이토
난간
일교차
다녀갔
1959
스노보드
궈
##덕수
빠뜨리
데이비스
겸한
파르
알파인
은퇴자
나영
혹평
탄수
현악
고원
건조기
진선미
응찰
##내티
타계
신시내티
무턱
범한
윈도우
노상
지병
##iss
기가
미들
##읽기
일변도
트렌치
##뜨릴
신해
용두
고열
떠받
전조
032
이스타
전성시대
능숙
진술서
##애애
수컷
걸스
림프
장승
이베이
##의지
여심
한탄
화기애애
정사
편해
산화물
사고방식
껴안
문화제
출자전환
개폐
셀러
은수
휴관
nie
했는데도
장판
춘향
1949
레이디스
수염
관계사
##해전
대백
1956
멈출
양손
유전체
가르시아
##천면
숙였
천마
들썩이
밀려났
정치국
바빴
조우
생활관
정공
총경
물줄기
##계리
빌트
송아지
골치
심려
뮤지엄
사물놀이
다롄
착하
순번
우습
올레길
깨우
발끝
잡초
짐승
랍니다
##음식
##하고
반달
폴라
피케
위시
##스톤
펑펑
##다발
우성
게임기
약체
내몰리
도가니
미네르바
두껍
쓰러졌
한테서
약학
요동치
타이트
나목
진경
강사진
안성시
스쳐
초원
버릇
소질
부재자
국교
묵시
##다닌
홍어
종목별
##석유
bh
운사
051
죄책감
포스팅
연륙
공과금
로만
낙찰자
아이슬
굴리
주례
생활고
탄수화물
신격
주물
입혔
보료
송유관
인형극
2040
이용한
포켓몬
매콤
선처
정훈
뭉클
조식
연설문
만행
##출혈
꿈꾼
다른데
심포니
와이번스
복병
직함
친하
찾아온다
스타킹
전사자
유커
전우
주어졌
권위자
서늘
산성
조르
나스닥
반년
호원
관세율
하이테크
860
끌어올려
듀스
##ology
조모
횟집
알아주
재소
부산진구
전모
추스
투사
허재
밝혀질
조정식
빗대
송호
안위
조석
파노
손해금
컵스
소서
직물
지으며
착용감
자각
종착
찌꺼
반항
릿
아미노산
역서
목공
바젤
팔찌
보육원
찌꺼기
노랑
직능
예선전
채굴
물대포
산호
990
빙그레
미야자
요충지
jo
어벤져
한국야구
설리
예리
지날수록
##스토크
##전화
태만
마구잡이
젝
경장
섹터
아낌없이
쑥쑥
진과
호위
사진가
자구책
충청북도
미티
아틀
쭈
브러더스
익힌
잠겨
질렀
친형
카탈
돈벌이
홈구장
갈릴
퓨처스
해충
감미
본류
5900
장률
##아졌
국방비
한동
구스
960
지어야
다단계
선구자
영사관
다물
아오
느려
간호학
스포티지
마산합
심사관
엇갈린다
엇박자
##ult
취량
꼭대기
산별
오대
##도장
##치료
잠재우
좌회전
##사채
학제
울상
지침서
##덕션
국민주택
특설
연구사
메라
생산비
##천연가스
김의
원만히
개악
##ond
커쇼
249
누군지
터트렸
##점검
종위
난다는
숭례문
오연
##차도
친일파
악당
힘드
1957
##좌왕
두텁
부턴
257
페인팅
우왕좌왕
풍년
##메이드
psi
연회비
pi
대유
대자
직항
##일비재
비일비재
민설
자인
총책
레코드
##ni
후진국
위문
달달
##경화
시들
##king
나빠졌
일정액
눕
##ite
암반
sofa
##천후
##스턴트
유연탄
양허
불거질
문산
##렌토
등반
야대
원탁
판권
재점검
불임
출두
수종
안식
관광버스
가스전
달아난
한도액
통고
수족관
서스
sky
독서실
안무가
캐논
손괴
모회사
크레디트
기폭
요강
통근
샘물
세워져
빠져나간
##포드
242
들여와
제프리
동물보호
근교
마스
오간
본업
권경
##폭력배
동그
게릴라
원거리
나날이
전용기
보위
인스턴트
##픽스
부러지
송창
애절
프랑스어
암흑
자금력
##끄럼
기복
##임즈
겠다
모면
지명타자
가와
고마워
했어도
연지
키코
big
온다는
박미
##배추
저류
창동
284
청원경찰
상어
랙
don
농법
비지
셀카
신봉
장경
적서
각양
양회
추문
스키니
자조
1951
나고야
7700
##old
명암
리더스
##봉투
처참
돌봐
문수
241
물류비
부러워
동양증권
시티투어
##분계선
cent
삼정
273
이씨
##포로
bet
주민세
테임즈
놓쳐
역류
##프레소
조선왕
명량
아우성
성품
잡아먹
직인
건전화
##덕여왕
##타인데이
거행
최지
수렁
제막
8400
뒤집어
침체기
오아
죄질
숙박업소
뽕
##마침
군사령
때마침
9600
##메드
연찬
항공모
뒷심
속공
물밑
라니까
모인다
nt
은행나무
타악
백재현
창녕군
힘내
272
한옥마을
히틀러
##진규
##채무
고노
탁자
오르막
생태관광
끓이
장근
고현정
사기죄
향한다
가히
배꼽
절절
##에이고
동양그룹
잡힐
경원
333
써니
와이즈
##안전공사
하키
마피아
어벤져스
휴대전화
강승
느긋
채동
방기
문지
변방
촉탁
로드리
포르쉐
눈감
온다고
내항
접안
자화상
##슐린
##토스
미완
비참
선지
순증
중략
##칩니다
치러졌
로봇산업
공설
컬럼비아
연출자
서핑
엽서
드리블
부러움
속살
젓갈
sam
##ram
eb
770
난치성
민족주의
선승
##덜랜드
이익금
월미
미덕
토했
초가
발전시설
귀하
요즈음
영제
소지섭
옮겨졌
##fl
발가락
호스피스
분진
문병호
입학생
##ital
달려들
신라면
간탄
당진시
308
##맥스
##에너지
변종
##슬기
강희
느닷없이
깨졌
카리
325
방배
총점
줄기차
기술인
들러리
수여식
##초리
논거
하인
##ear
전집
대항전
4100
겨자
폐회식
경인일보
정치권력
네이션
##nt
파스텔
상무위원
물산
인슐린
제정법
착실히
이지만
가발
검침
가등기
마침표
정치력
참가국
소방대원
##먹이
냉소
라던
망언
왕십리
옴니
토기
##래스카
학습지
네일
해저드
##벌리
정설
문태
워드
레인보
라식
계셔서
교외
암컷
대흥
바랄
쟁이
둘러볼
티브이
어가
각양각색
##브르
노정
pre
리모컨
##킨슨
가속도
평지
기염
야유
정약
엔드
총알
건설비
상륙작전
이월액
조지아
난장
쾌감
학당
분쇄
고철
즉답
315
내비치
전시물
몰카
야단
겨루기
소시지
8700
나우
섬기
미륵
##담보
##랑드
차렸
스펙트
온종일
리즈
우주선
걸작
서지
인심
뻔히
말끔히
590
##wor
변함없이
참기름
acc
야시장
티볼리
귤
두리
##사이드
기린
제창
표장
조도
251
아쉬워했
##죽순
빅딜
전류
죄인
저당권
까치
됐으니
우후죽순
610
kep
유품
심판원
쓸데없
##노현
중학
불모지
세외
인도적
전해져
평창군
씀
위니
새터
재택
##스피어
끈질긴
새터민
305
살인범
##익스피어
악장
쫓겨나
##화가
교인
함수
렛츠
페미니즘
##송이
벌렸
스노우
지휘부
조폐공사
긴급조치
##충돌
순대
모로코
꿋
윤후
266
든다는
유심히
오작
낙농
501
삿포로
##둘기
꽃잎
장녀
##ev
##느님
내려서
세계무역
##기록
내라
모스
객원
##커버그
관리제
성직자
스타크
##age
윤활유
개명
일평균
분란
두드려
끊긴
pol
종교인
에콰
스펙트럼
에콰도르
뒤처지
산촌
##메이트
기통
오제세
액상
원통
박테리아
브라운관
생강
관광업
바이에른
##게이
류성
비친
재개발
버무
가로채
인천대교
꿋꿋
김학용
홍문종
혼전
부과금
헤어지
##백산
##산면
응수
함박
다이나
이코노미
수아
더미
##경쟁
돌담
튀니지
과부
달한
봉우리
지멘스
탐방객
휘둘리
군중
엠블
초속
ass
형사부
미정
워시
침식
네이마르
매서운
선덕여왕
격려금
숭실대
인데다
러프
사선
입도
폭동
게양
비노
최광
캐럴
거처
kwh
성주군
용암
인솔
하야
자폐
상지대
##학력
나성범
둘러봤
풀어놓
처치
터득
공유지
출루율
천적
찾아낸
레드카
유니클로
영화사
둥글
소상히
하느님
불협
철분
갱년기
진일보
일회용
향교
쏟아진
붕어
세차
걸어야
밤하늘
소나기
살수
충만
레인지
보톡스
잔소리
미동
기단
리안
앞장선
기획부
박탈감
쎄
순발
자양
269
##가와
치달
피난처
매미
베란다
공개경쟁
355
네이비
##의료
tc
맏형
쏠렸
상점가
순발력
이태리
급제
단아
대양
내곡동
홍일표
되물
벨벳
구력
oem
노심
두레
리커
실소
원목
여장
가로수길
북면
슬퍼
안내서
마르크스
##우먼
제구
소기
토이
시금치
송민
부동층
태어날
츄
ba
우면
가이
416
모노레일
##하이머
이름값
지중화
끄집
밝기
277
브런치
이영표
광역버스
dmc
설상가
ea
##rc
맞설
진찰
연령층
만반
보호사
높인다는
설상가상
공관장
뇌출혈
##난데스
강길
임지
나타낼
302
넘친다
에틸렌
별정직
전달식
완강
작심
최용
대놓고
##마루
온난화
호남선
##식당
제이슨
과학기술
간극
##화음
쏘렌토
이운
1946
##제약
독설
연유
제전
성취감
##크로
난청
스냅
성공회
도라
명창
백범
영흥
노라
잠적
자그마
국민운동
tm
숙면
실존
한영
화물선
달째
즙
보아
위용
현격
##사체
문대
sol
연평해전
의장국
럽
곽상
1577
대립각
##광역시장
##ition
처할
대기실
다이어리
오갈
경수로
울릉군
##트니
긍지
관람권
격파
백년
임씨
특법
237
금정구
##노버
쏠려
티스
대자보
지스타
기말고사
군내
abs
국유지
노보
안나
유분
비기
서스펜
연구용
##hs
##조림
경춘
리전
맘껏
안진
아수
특근
불협화음
##탄두
원산
아낄
장려상
제일기획
로웠
길들이
바가지
최양
777
신관
방법론
즐거워
남달
마이크로
전등
##소비세
궂
프랭크
고성장
830
8600
천체
침공
두들
재주
허심
루마니아
홀인
262
bar
고소인
기술진
탑승자
그걸로
재수생
가인
나래
##버님
중사
다비
김형오
카르텔
어로
고기능
전열
죽인
초밥
교각
강단
허태
올려놓
북카페
사단장
항공모함
역사학
au
나프
흥덕
판매업
부산일보
가면
비품
##어음
mi
오크
헤비
##ning
nbc
탈락자
마십시오
관음
껄
뿐이
7400
견조
대종
노인회
살려서
아베노
자유자재
820
발바닥
서울특별
메운
우전
플리
고학년
고체
컬처
276
올겨울
지출액
횡단보도
면할
휘말리
릉
247
진구
##수술
근황
원액
접합
허공
곤욕
##잔디
과업
초입
공갈
팻말
경제인
환호성
담판
##고생
선덜랜드
전미
승급
출액
##ert
산삼
변한다
스틸러스
용문
초읽기
따져야
버버리
전야
fps
블루스
근심
이비
양여
혜성
기해야
루키
차곡
현영
스탠다드
머스
연근
조리사
집들이
백색
희미
모조리
박혀
삼송
아성
ncs
전횡
수준급
espn
다이얼
었었
농원
변재일
간이
내부자
이충
생년
정숙
문화축제
파노라마
##팽이
보합세
차일
##승차
##펜하
뒤엎
마필
따돌림
소하천
진부
각색
거명
포옹
행시
발생량
일시금
##사르
난타
##보트
##시위
##옵션
개당
단도
연제구
흘러나왔
자투리
의용
치료사
주액
지번
토성
이지스
교비
##신안
흠결
278
실용신안
##혜선
저거
가르칠
생방송
저버리
##서울청사
거소
알렉산더
영미
육사
병리
뽑히
편달
교육학
##추세
경춘선
항공업
승용
여제
페라리
성큼
훈풍
##공간
만수
성형수술
##사이클
선심성
꾸며진다
전환사채
템포
무소속
제안자
258
##세프
##수입
불태
뻔뻔
690
대행자
염전
지창
286
몽땅
자판기
##메이카
자메이카
캐스트
옥죄
장년
##바라지
애당초
민군
왜관
청백
알로에
틈새시장
##지책
묶인
비고
밝혀왔
태종
화정
쌍용건설
##고장
인스
사이다
반듯
조범
초구
통수
남동생
##경사
꿈꿨
뱉
##들레
신춘
267
핵탄두
홈런왕
씨스타
웰컴
판매원
깍
ilo
내용물
서랍
울분
학도
협상력
휴식기
1952
대첩
뚫린
호명
##라이터
방편
기싸움
동시대
기무
경제난
초지
mark
##캠핑
345
발행인
오토캠핑
마마
발각
새싹
이민정
##미남
영도구
난다고
데려오
물살
자만
해약
여겨진다
숙취
미술사
7300
벨라
375
층수
카시
조민
불러온
이발
##기준
교착
심위
잔해
발인
승차감
밀크
부종
##대병원
올랑드
웨이퍼
한선교
##vice
송강호
구기
##조정
ga
소매점
rfid
칼리
도로망
##보스
옛길
##form
마티
약재
뒤따르
##답니다
손석희
##de
상명
단호히
가늘
710
가벼워
동해시
폄훼
페더러
노승
윈터
##차곡
차곡차곡
복통
진종
재활용품
##bl
자루
동심
마중물
악보
나아졌
무기명
함유량
잘사
거듭났
로저스
옥스퍼드
그친다
239
##콥터
명당
지령
캔디
sms
팟캐스트
넘쳤
손대
착시
꽃미남
당한다
창작자
##own
장현
qpr
##아리움
글러브
대물림
##꾸미
##암리
라우
사교
전투력
기이
##추세츠
성벽
솟아
황성
##에이징
으셨어요
정준양
자료실
군무
깃든
재력
판별
도매상
실래요
합격률
모신
거창군
네스
동편
증편
eez
부실기업
총지
부도덕
지역난방
306
경험담
치이
제시카
대통령실
경포
7900
##시대회
경시대회
광동
육법
겸허히
실격
압둘
푸념
운동화
윤상직
유고
피란
지프
증거능력
미룬
초년생
다도
하림
그만뒀
영업장
jyj
##구치
cfo
사단법인
파마
달려온
##상각
순창
농업용
카를로스
표제
담가
레터
세전
최창
대통
윤소
김용준
밀레니엄
뿌렸
미국식
발매소
##경제부
oil
세워졌
##드로
명복
rg
과점
인구수
구마
감가상각
메스
han
국민주
개학
묘목
타르
담양군
시티즌
등용
송편
cont
가져간
납북
손주
cgt
##뜨려
옆집
동화책
태백산
복강
플루토
불륜
서클
일깨우
엿보인다
출세
형강
수술비
저스틴
중간고사
반인
분묘
##누르
산신
그지없
밸런
건축학
보여서
##사관학교
내연
망가지
##넥스
보국
부교
사례금
##천사
부머
정월
제스처
서문시장
후미
임산물
##보라
빌릴
허비
아로마
##row
먹방
정소
동일본
8900
논설위원
레인보우
추워
동성애자
##iew
순기능
##꼬박
골칫
준중
꼬박꼬박
295
내리막길
타순
##대로템
현대로템
wc
한남
얽매이
##ound
영국인
2024
##구이
대납
꺼낸
불요
만이
카바
옐로우
##덕동
박윤
##릅니까
기원전
걸치
염동
기입
cre
한남동
vc
통쾌
##펜하겐
코펜하겐
##무가
공터
된단
인사이트
듀엣
쌓였
관리직
후안
열병
##탄회
##전쟁
철쭉
현원
허심탄회
이륜
판화
압박감
풀코스
골망
버림
붙들
팔자
eng
핫라인
헤어진
##길동
유혈
rpc
태영
샅
루즈
셀틱
견주
벼르
##up
##질렀
유년
근시
##캠프
##코프
페라
나진
병가
발표문
최적지
무르익
웨이트
덮친
넘어온
산악인
고육
떠도
방파제
논산시
우리말
자궁경
##산리
당명
힘쓸
6900
마지노선
끈기
일군
천성
일으킨다
##은경
노경
공장장
영주시
대전일보
우러
들여온
데얀
순리
투지
가린다
김국
사하구
시음
열창
탄다
화교
코픽스
고이
문중
베어
감지기
재소자
피시
심해질
강봉
사망률
고을
저작권법
견책
귀감
비뇨
일고
중문
재래식
프리우스
패해
혼탁
경호원
혐의자
혼합형
역효과
살핀
안젤
엄연
우천
막무가
뒷돈
초계
핸디
바코드
생년월일
막무가내
나포
시무
결산서
어쩌다
##제르
##스테르
보내온
변이
송년회
십자가
들여다볼
덕양
권태
요람
풋풋
##야구장
알래스카
##치락
xx
금일
직설
##게스
개운
관직
부화
이방인
##자락
마하
관방
연마
이사철
##눈썹
발품
외채
릴리
만리
펄펄
대피소
##티어
권상
속칭
의외로
인원수
교통카드
##나가
##ise
본의
카우
트레일
##마드
회당
종과
입법안
폐단
곤두박질
헬리콥터
##절차
김만
뛰쳐
청원군
피카소
##ens
천진
번질
연해
톰슨
운전대
전력망
편집국장
삭발
기폭제
함안군
다간
##황후
스텐
변전소
##세종
선망
종국
크리스털
디오
미칠지
결점
산수유
유니세프
gi
범퍼
건의문
낱말
동석
번져
죽였
개청
계보
에인
마티스
레인저스
걷잡
스피치
##워스
생중
안드레
uf
결정력
감돌
고척
곤지
파사
바닷속
미끄러지
증거물
스티어링
##의학
반목
자괴
얻어맞
비둘기
##히로
랴오
상견
지저
ssd
헤아리
고음
대패
282
##데르
일광
화장장
점치
274
무의미
문제없
집배원
아이리스
hr
다툴
레더
치욕
##융합
로페즈
떨어져서
오현
월권
다나
동래구
제쳐
학습장
li
공공사업
일렉트릭
가려움
심리치료
광택
항모
486
##더위
갈까
내줄
oo
두르
마운
마인
med
맞춘다
방범대
유언비어
숨결
이설
저러
웨스턴
조미료
##연휴
게리
259
황금연휴
빙자
외유
태반
흉부
만석
비겼
빚어
색조
lme
틀림없이
라떼
맞받
빨랐
노랫말
야영장
상한제
번졌
스탬
월정
인들
칙칙
영호남
감칠
손쉬
족발
덧붙이
향식
불쾌감
축구팀
마을버스
bg
원폭
불러오
지론
플렉
달리기
난징
보가
불경기
갑판
307
티몬
세운다
프라이드
##문트
가를
선미
시끌
rpm
누명
사유서
속눈썹
동질
기대주
고베
체의
자궁경부
관위
특판
영양제
홀리데이
ifa
마닐라
##dd
##커즈
모레
백억
포유
070
연륙교
규슈
전영
나가수
미확
안창
준장
기뻐했
멀리서
##긍긍
정심
자국민
전전긍긍
##나절
##사원
불시
순진
온화
허리띠
값비
유구
저유
피워
는다며
번가
최적화
강태
기껏
필수품
인산
화환
악명
출가
해안가
회견장
청소년기
##혁명
음력
장혁
상견례
##셔티브
대공원
문제삼
이어질지
##혜련
만유
기막
face
안규
271
소중히
아버님
좋아했
즐긴
의정비
흐른다
쏟아진다
##사장
##자니아
비밀리
작별
혹한
동양인
양수인
피임
080
의성군
5100
매개체
조력자
터뜨려
부이
790
870
알파벳
버지니아
고쳤
슬쩍
mrg
데뷔작
차린
재야
이단
학부모회
##중앙
돌변
빌렸
사서
순응
일면
통찰력
##독부
노모
세모
중임
비나
플루토늄
ur
김하
선재
현란
##코스터
다가와
##분자
거닐
골랐
본성
환희
깜빡
성빈
스튜어
ui
시문
선하
꽃다발
돗
설움
##기현
##오위
가려내
장병완
피라미
아이언맨
수프
낮춰야
나쁨
격앙
조난
임채
부실시공
##상도
여긴다
건드
온열
대여금
폭격기
못함
변속
298
등심
제련
mus
소년원
##book
핵융합
빨려
우포
전고
기전
습자
311
은근히
직진
##티나무
아킬
군기
떡국
매해
죽전
편향성
##확산
하이텍
김흥
고인돌
미니스
즘
##존스
외사
옆구리
##유지
잡티
cv
정무직
8200
깜찍
삼국지
플래너
##장자
벼룩
안전도
노안
sos
고발장
sb
길가
위도
더없이
저커버그
장호
짝사랑
aiib
동신
무연
월마트
으셔서
적외선
노다
도끼
서희
쇠락
교육세
김삼
편제
착공식
기망
기혼
두툼
##실록
차차
의문점
av
기항
휘두
맡겨야
수용성
느티나무
다빈
바친
스킨십
약대
한예
깁
기압
312
에인절
스페인어
박진감
##조각
297
부주의
한국식
궁지
조각가
짤막
화신
까마
283
매제
형수
손쉬운
##보감
라가
친서
피노
도레이
뒤이
퀀텀
##ster
수욕장
우도
쿨링
기술사
아닐까요
##베르트
예치금
탱고
김범일
수임료
떠밀
주검
조사원
불쑥
역주행
필로폰
낭송
매연
동문회
민속놀이
독신
억불
호스트
박만
제리
add
산국
향대
무서워
소장파
성장산업
mbps
되살아나
미적
조선호텔
라지만
##차대
슬라이딩
수니
중차대
김아
까칠
기능직
물러날
##받이
vi
경종
무어
사색
##ell
bk
wi
방풍
고주파
제수
칼리지
위인
코바
터스
입학금
전원주택
##혜정
지참
연찬회
원지
선택지
밀어주
방문단
탐지기
실례
장해
환적
309
미끄럼
##도현
농악
무협
##진다는
중랑구
무예
##시원
##윤경
기품
임면
그려져
성고
##스크린
맹비
새긴
거위
무근
속인
wee
알아들
찾아간다
값비싼
청나라
전압
고위층
순찰차
##교도
알츠
김인식
보수당
결정지
이어주
고궁
테크닉
공민
##홈쇼핑
mob
자타
isu
##ath
김사
박우
코멘트
다년
신구
꿈꾼다
설거지
오로라
kcal
##공군
체가
csi
이치로
조한
가덕도
크레이
##려고
둬서
투박
bbq
간척지
강북구
컴투스
극장가
클리어
드라마틱
프라이스
계몽
약값
개천
준원
허준
법정형
서유럽
##예술종합
자필
810
윌슨
신해철
하이힐
머뭇
홍순
##토니오
289
슐
스니커즈
##기간
비발
940
쌍방향
경축사
도곡동
수입원
스텔스
##물관
온스
전공노
답습
자석
##쿼리
명주
순정
천경
287
중고생
묶음
되새겨
사상구
두둔
조전
##민정
내원
블레
혹여
꺼져
시화호
##착증
과민
흐지
대항마
흐지부지
오심
##이
##다
##는
##에
##을
##고
##지
##의
##하
##가
##한
##로
##기
##서
##사
##은
##대
##도
##를
##해
##시
##정
##인
##수
##0
##있
##원
##자
##1
##부
##제
##으
##리
##니
##장
##그
##어
##전
##2
##보
##아
##과
##들
##상
##라
##주
##것
##국
##위
##일
##나
##만
##했
##적
##면
##게
##관
##경
##성
##조
##공
##요
##구
##업
##회
##스
##문
##여
##3
##계
##소
##동
##비
##선
##등
##안
##중
##개
##화
##우
##금
##신
##습
##년
##5
##산
##할
##용
##진
##내
##무
##유
##되
##연
##와
##분
##당
##4
##까
##세
##생
##마
##거
##행
##재
##명
##통
##데
##실
##치
##교
##단
##야
##영
##입
##방
##발
##간
##체
##미
##오
##법
##모
##말
##드
##예
##러
##학
##6
##민
##된
##차
##9
##역
##며
##터
##트
##운
##출
##7
##8
##건
##결
##각
##현
##반
##때
##설
##없
##감
##려
##었
##청
##후
##심
##합
##강
##월
##력
##물
##않
##직
##난
##최
##식
##바
##히
##표
##저
##겠
##점
##런
##호
##권
##양
##임
##음
##매
##속
##작
##달
##록
##본
##남
##래
##포
##더
##노
##받
##추
##항
##외
##준
##처
##두
##또
##타
##급
##따
##불
##번
##판
##증
##근
##김
##약
##천
##종
##특
##프
##확
##질
##품
##르
##올
##박
##배
##료
##던
##억
##책
##같
##환
##파
##피
##형
##함
##평
##활
##육
##규
##렇
##련
##른
##s
##석
##울
##t
##투
##능
##m
##많
##a
##목
##변
##토
##집
##격
##c
##승
##태
##초
##협
##크
##복
##님
##담
##았
##됐
##별
##검
##령
##광
##북
##술
##열
##든
##및
##필
##람
##e
##군
##께
##i
##알
##편
##총
##날
##참
##린
##론
##축
##k
##못
##향
##레
##디
##독
##절
##획
##험
##희
##될
##립
##였
##언
##o
##새
##송
##씨
##앞
##황
##견
##취
##채
##온
##병
##창
##찰
##밝
##량
##카
##택
##씀
##l
##느
##버
##키
##b
##g
##망
##코
##늘
##루
##란
##순
##맞
##접
##n
##철
##높
##살
##류
##농
##율
##벌
##충
##p
##돼
##액
##극
##d
##좋
##r
##삼
##범
##너
##족
##존
##손
##졌
##혔
##잘
##례
##률
##효
##브
##줄
##길
##누
##측
##악
##익
##돌
##애
##워
##막
##곳
##친
##냐
##테
##티
##융
##쟁
##럼
##걸
##메
##완
##논
##객
##허
##백
##득
##림
##왔
##름
##패
##뒤
##져
##응
##페
##침
##움
##네
##답
##갈
##센
##좀
##폭
##넘
##글
##f
##플
##팀
##랑
##볼
##놓
##갖
##셨
##머
##홍
##찾
##큰
##겨
##골
##십
##렸
##잡
##락
##색
##떻
##탄
##쪽
##쳐
##커
##엔
##층
##베
##랜
##째
##즈
##얘
##v
##균
##션
##봉
##혁
##폐
##밀
##징
##얼
##u
##롯
##h
##케
##착
##밖
##눈
##혜
##났
##긴
##훈
##먼
##럽
##힘
##탈
##핵
##찬
##떤
##첫
##탁
##w
##츠
##블
##쓰
##뿐
##끝
##윤
##휴
##빠
##퍼
##큼
##몰
##싶
##돈
##헌
##엄
##혼
##퇴
##풍
##혀
##략
##흥
##앙
##템
##꾸
##램
##닌
##납
##랍
##죄
##클
##염
##녀
##왜
##칙
##릴
##켜
##곡
##혹
##념
##귀
##압
##숙
##촉
##뉴
##먹
##룹
##떨
##욱
##떠
##써
##낮
##냈
##붙
##끌
##낸
##셔
##잠
##덕
##/
##홈
##암
##풀
##왕
##좌
##뜻
##즌
##콘
##널
##듯
##몇
##팅
##겁
##끼
##굴
##텔
##폰
##갔
##됩
##맡
##쉽
##둘
##갑
##웃
##넷
##렵
##벤
##링
##컨
##틀
##춘
##씩
##뤄
##봐
##핑
##욕
##얻
##팔
##몸
##캐
##슬
##쇼
##쳤
##봤
##짜
##엇
##촌
##죽
##낙
##델
##슨
##픽
##랐
##벽
##y
##즐
##닙
##싸
##빈
##슈
##펼
##척
##칠
##휘
##뛰
##녹
##옥
##혐
##웨
##뭐
##둔
##캠
##뢰
##펀
##놀
##텐
##섰
##냥
##므
##잖
##굉
##넣
##롭
##힌
##춰
##홀
##턴
##맛
##섭
##숨
##맹
##털
##칭
##킨
##꿈
##혈
##j
##첨
##잔
##값
##탕
##곤
##컬
##쿠
##싱
##쉬
##깨
##웠
##x
##짓
##빨
##궁
##뜨
##겼
##삶
##졸
##솔
##팬
##렌
##즉
##흡
##푸
##빌
##듣
##맥
##묻
##섬
##헤
##깊
##꽃
##흐
##괄
##흔
##꼭
##꼽
##펴
##맨
##삭
##컵
##겪
##닥
##밤
##빛
##뷰
##찍
##늦
##덧
##킹
##땅
##잇
##릭
##줬
##킬
##엘
##괴
##줘
##춤
##컴
##뮤
##빼
##쇄
##́
##렴
##즘
##젊
##걱
##죠
##낼
##탑
##읽
##딩
##튼
##콜
##벗
##켰
##칼
##닝
##럴
##뇌
##벨
##믿
##흘
##넓
##젝
##픈
##봅
##짐
##슷
##듭
##곧
##냉
##폴
##셈
##탐
##촬
##꺼
##짝
##봄
##빙
##긍
##밥
##끊
##옮
##쯤
##켓
##뽑
##힐
##쓸
##낌
##씬
##똑
##겸
##럭
##딸
##랙
##쌓
##앉
##묘
##쌀
##끄
##멘
##콤
##앤
##잃
##쏟
##웅
##덜
##톤
##멀
##뀌
##셀
##싼
##흑
##렀
##콩
##텍
##훨
##빚
##찌
##릿
##뒷
##쓴
##밑
##렉
##끈
##랬
##랫
##묵
##옛
##잉
##챙
##빅
##닐
##갤
##읍
##펜
##맺
##퓨
##훼
##롱
##쾌
##꼬
##짧
##핀
##폼
##닉
##깔
##뿌
##섯
##낭
##슴
##쌍
##꼼
##젠
##몽
##딱
##옷
##넥
##걷
##셋
##꾼
##헬
##엑
##릉
##옆
##돕
##샤
##탓
##끔
##놨
##굳
##둥
##곽
##챔
##앱
##톡
##멸
##뷔
##틱
##렬
##멤
##룡
##숲
##z
##꿔
##셜
##q
##횡
##봇
##큐
##륙
##눠
##엽
##톱
##쁘
##몬
##롤
##깐
##겐
##껴
##썼
##숫
##뱅
##앨
##밴
##벼
##틴
##듬
##엠
##쁜
##룩
##찮
##쇠
##뭔
##붕
##팩
##첩
##깝
##눔
##덴
##랄
##뒀
##윈
##젤
##녁
##밸
##밟
##룬
##밭
##잊
##튜
##쿨
##칸
##띄
##돋
##랭
##떼
##팽
##룸
##췄
##뚜
##됨
##턱
##옵
##쨌
##틸
##닫
##ᄀ
##겹
##좁
##괜
##닷
##덩
##닭
##묶
##듀
##멋
##낄
##팎
##쏠
##웹
##훌
##쥐
##낳
##왼
##딜
##옳
##틈
##룰
##엉
##껏
##둑
##뼈
##옹
##녕
##깜
##빵
##밍
##쏘
###
##덤
##칫
##빗
##떡
##맙
##컸
##깎
##댐
##믹
##꺾
##랩
##멈
##끗
##뇨
##샘
##퀴
##댄
##뚝
##낀
##몫
##깃
##꼴
##앗
##곱
##탱
##꿀
##셉
##튀
##렁
##땀
##촛
##륜
##뭘
##쿄
##렷
##픔
##덮
##멜
##흉
##냄
##얀
##섞
##릇
##쫓
##셰
##샌
##쩍
##쿼
##긋
##궐
##땐
##댓
##숭
##띠
##팝
##핸
##멍
##헨
##뚫
##캔
##둬
##샷
##킷
##짚
##숍
##웰
##븐
##싫
##뤘
##꼈
##릅
##눌
##멕
##넉
##햇
##륭
##롬
##섹
##렛
##벅
##갚
##릎
##뻔
##솟
##닿
##맘
##뭉
##갱
##앓
##푼
##탠
##컷
##휩
##쩌
##붉
##뀐
##낫
##궤
##늄
##횟
##맑
##닛
##잦
##낯
##슛
##놔
##볍
##톨
##켈
##잎
##칩
##곰
##흙
##펙
##쩔
##윙
##킴
##곁
##꿨
##굿
##맵
##쁨
##엿
##펌
##젖
##펠
##텀
##닮
##쎄
##뚱
##캘
##갯
##뱃
##붓
##쪼
##꽤
##뉘
##싹
##캡
##딪
##뜰
##윗
##핫
##낚
##툼
##딘
##썩
##쭉
##흰
##흠
##뜬
##삽
##붐
##팡
##쑥
##겉
##딴
##핏
##쉐
##첼
##앵
##녔
##휠
##뭄
##줌
##끓
##윌
##씻
##뭇
##갓
##잣
##킥
##쭤
##닦
##굽
##쉼
##샵
##굵
##툰
##얽
##줍
##캄
##뭡
##놈
##뽐
##넌
##뜩
##펑
##짙
##깥
##웬
##찔
##콧
##젓
##햄
##ᄂ
##W
##꾀
##늬
##륨
##돔
##솜
##넬
##훔
##낡
##펄
##찜
##헐
##퉁
##텃
##얇
##밋
##삐
##썰
##풋
##볶
##엣
##퀘
##헛
##슐
##뮬
##돗
##옴
##톰
##얹
##잭
##쑤
##샀
##뜯
##듈
##넨
##꽂
##팜
##힙
##빔
##꽁
##껍
##띈
##눴
##랴
##쉴
##싣
##뀔
##뻐
##볕
##촘
##짱
##뺀
##팍
##늠
##궈
##콕
##홉
##럿
##갇
##퀸
##탔
##뜸
##덱
##슘
##흩
##켄
##뻗
##쭈
##벚
##렘
##딛
##탬
##껑
##렐
##낱
##벡
##엮
##엎
##푹
##꽉
##늑
##뽀
##퀄
##웍
##똥
##뛴
##뿜
##둠
##펫
##샐
##C
##M
##벙
##뺏
##밌
##쭙
##퓰
##뱀
##솥
##챌
##쥔
##툴
##냅
##쥬
##꿰
##끽
##샴
##팟
##헝
##뉜
##곶
##겔
##삿
##왈
##씁
##씹
##찢
##깁
##띤
##옐
##똘
##앰
##떳
##귤
##떴
##폈
##빡
##덟
##벳
##튬
##늪
##딤
##탤
##셸
##씌
##쌈
##늙
##뿔
##딥
##깡
##뎌
##멧
##콰
##썸
##댔
##숱
##굶
##얄
##캉
##핍
##찼
##즙
##왓
##짠
##뛸
##띔
##팸
##뮌
##퉈
##맷
##팁
##팥
##댈
##넸
##탭
##짬
##텅
##짤
##첸
##쩡
##옌
##섣
##썹
##뽕
##딕
##큘
##뤼
##쉰
##툭
##콥
##넛
##걀
##맏
##췌
##둡
##렙
##짖
##폄
##텝
##칵
##H
##씽
##뱉
##쿵
##컫
##꿇
##ᄃ
##룽
##큽
##쏙
##괌
##팠
##헷
##팰
##룻
##쿡
##톈
##쫄
##챈
##썬
##댁
##탰
##퐁
##랠
##섀
##딧
##긁
##륵
##훗
##쐐
##땠
##춧
##숯
##찻
##쿤
##꿋
##튿
##덥
##샹
##텨
##쏜
##뵙
##캣
##뺐
##썽
##맴
##몹
##땡
##뾰
##켐
##쯔
##깅
##땄
##샛
##녘
##팻
##훤
##왠
##빽
##츰
##뺨
##츄
##젯
##빴
##샅
##좇
##틋
##깬
##궂
##몄
##뿍
##엌
##춥
##뻥
##넋
##갸
##뻑
##윽
##훑
##뗐
##껄
##눅
##텁
##귄
##컥
##숏
##앴
##롄
##엊
##쌌
##짊
##눕
##퀀
#뻘
##ᄋ
##킵
##싯
##궜
##랏
##켠
##퀵
##랗
##뗄
##깍
##얗
…
ㄱ
ㄲ
ㄳ
ㄴ
ㄵ
ㄶ
ㄷ
ㄸ
ㄹ
ㄺ
ㄻ
ㄼ
ㄽ
ㄾ
ㄿ
ㅀ
ㅁ
ㅂ
ㅃ
ㅄ
ㅅ
ㅆ
ㅇ
ㅈ
ㅉ
ㅊ
ㅋ
ㅌ
ㅍ
ㅎ
ㅏ
ㅐ
ㅑ
ㅒ
ㅓ
ㅔ
ㅕ
ㅖ
ㅗ
ㅘ
ㅙ
ㅚ
ㅛ
ㅜ
ㅝ
ㅞ
ㅟ
ㅠ
ㅡ
ㅢ
ㅣ
ᄁ
ᄄ
ᄅ
ᄆ
ᄇ
ᄈ
ᄉ
ᄊ
ᄌ
ᄍ
ᄎ
ᄏ
ᄐ
ᄑ
ᄒ
歌
價
加
可
假
街
暇
佳
架
柯
賈
軻
迦
伽
嘉
呵
嫁
稼
苛
袈
駕
哥
痂
珂
茄
訶
跏
枷
斝
葭
檟
哿
珈
各
角
刻
覺
脚
閣
却
珏
恪
殼
慤
桷
卻
間
簡
看
干
刊
幹
懇
肝
姦
杆
艮
奸
墾
澗
癎
竿
艱
諫
揀
稈
磵
桿
柬
侃
蕑
玕
榦
瞯
衎
渴
葛
鞨
喝
竭
褐
碣
曷
乫
蝎
秸
感
減
監
甘
敢
鑑
憾
堪
柑
疳
瞰
紺
勘
嵌
坎
橄
鑒
戡
龕
矙
欿
减
酣
歛
鉀
岬
匣
閘
胛
強
講
康
降
剛
綱
鋼
崗
疆
岡
彊
腔
慷
糠
薑
絳
羌
鱇
畺
强
堈
舡
襁
橿
杠
開
改
個
槪
介
蓋
皆
慨
价
塏
愾
漑
凱
箇
芥
疥
盖
鎧
愷
湝
喈
槩
玠
嘅
客
喀
坑
羹
粳
鏗
賡
硜
秔
臄
車
擧
去
拒
居
據
巨
距
醵
渠
倨
踞
炬
遽
鋸
鉅
祛
据
虡
籧
筥
蘧
莒
琚
秬
袪
椐
件
建
健
乾
鍵
巾
腱
虔
愆
楗
騫
蹇
褰
傑
乞
桀
杰
朅
檢
儉
劍
鈐
瞼
黔
劒
怯
劫
迲
跲
憩
揭
偈
愒
格
擊
激
隔
檄
膈
覡
綌
繳
鵙
鴃
見
堅
犬
遣
肩
絹
牽
甄
繭
譴
鵑
豣
睊
獧
岍
蠲
繾
畎
狷
結
決
潔
缺
訣
抉
袺
闋
觼
兼
謙
鎌
慊
鉗
箝
歉
蒹
敬
輕
競
景
境
經
警
慶
驚
更
傾
鏡
頃
徑
硬
耕
卿
庚
竟
璟
儆
瓊
炅
勁
鯨
憬
頸
莖
脛
磬
痙
梗
倞
勍
涇
逕
耿
絅
擎
俓
坰
暻
璥
罄
睘
鶊
牼
冂
黥
褧
熲
焭
煢
檠
惸
冏
駉
界
計
係
階
鷄
季
系
繼
戒
契
桂
啓
溪
械
繫
癸
悸
屆
堺
磎
稽
谿
棨
誡
笄
雞
烓
古
苦
告
考
固
孤
庫
姑
稿
鼓
顧
枯
雇
皐
敲
辜
袴
拷
叩
股
呱
膏
痼
錮
菰
藁
蠱
誥
羔
沽
槁
暠
攷
尻
苽
睾
翶
楛
槀
櫜
盬
瞽
罟
羖
栲
杲
刳
鼛
稾
罛
觚
酤
熇
曲
穀
哭
谷
梏
鵠
斛
觳
轂
牿
困
坤
昆
棍
袞
琨
鯤
滾
梱
崑
髡
棞
錕
緄
鯀
骨
汨
工
空
共
功
孔
攻
貢
供
恐
恭
鞏
拱
控
蚣
珙
悾
邛
果
科
課
過
誇
寡
菓
戈
瓜
顆
鍋
跨
薖
夸
蜾
裹
郭
廓
槨
藿
霍
躩
鞹
觀
關
管
寬
貫
館
慣
冠
款
琯
串
棺
顴
灌
瓘
菅
罐
梡
盥
瘝
痯
鸛
錧
祼
丱
綰
刮
括
适
恝
栝
佸
聒
廣
鑛
狂
曠
壙
匡
胱
珖
洸
筐
侊
炚
纊
誑
桄
迋
掛
罫
卦
壞
怪
塊
愧
傀
槐
拐
魁
乖
蕢
瑰
虢
肱
轟
宏
紘
觥
鞃
校
敎
交
橋
巧
較
郊
矯
僑
膠
絞
攪
咬
喬
驕
轎
蛟
皎
狡
嬌
嶠
鮫
餃
翹
蕎
儌
敽
荍
磽
茭
蹻
嘐
佼
鷮
曒
姣
九
口
球
區
具
舊
救
求
句
究
構
久
拘
丘
俱
龜
驅
苟
懼
狗
鷗
歐
購
邱
玖
矩
駒
鳩
舅
枸
廏
寇
嘔
仇
垢
衢
鉤
臼
毆
溝
灸
軀
柩
謳
嶇
絿
廐
勾
坵
瞿
逑
銶
耈
咎
柾
毬
屨
嫗
俅
劬
姤
糗
雊
觩
艽
笱
韭
遘
媾
裘
彀
窶
疚
璆
漚
搆
捄
扣
覯
局
菊
鞠
鞫
麴
匊
郡
君
群
窘
裙
屈
窟
掘
堀
詘
宮
窮
弓
躬
穹
芎
券
勸
卷
拳
圈
眷
捲
倦
淃
棬
睠
綣
鬈
厥
闕
蹶
蕨
獗
軌
潰
詭
几
櫃
机
饋
垝
匱
氿
簋
跪
餽
匭
簣
貴
歸
鬼
晷
宄
規
糾
叫
閨
珪
揆
奎
圭
逵
葵
窺
硅
赳
竅
槻
闚
糺
戣
頍
睽
樛
刲
騤
頄
均
菌
鈞
勻
畇
筠
麕
箘
橘
極
劇
克
隙
剋
戟
棘
殛
亟
郤
襋
根
近
勤
筋
僅
謹
斤
瑾
槿
饉
覲
劤
芹
菫
懃
漌
墐
金
今
禁
禽
錦
琴
襟
擒
衾
昑
檎
芩
衿
妗
急
級
給
及
扱
汲
伋
岌
肯
兢
矜
亘
亙
氣
記
旗
己
汽
期
技
器
起
機
寄
奇
紀
騎
祈
畿
其
旣
忌
棄
欺
飢
豈
幾
棋
冀
岐
驥
耆
麒
沂
淇
琦
琪
璣
箕
騏
譏
肌
綺
杞
朞
崎
妓
伎
羈
嗜
畸
磯
埼
圻
碁
夔
璂
祁
祇
祺
玘
錡
錤
耭
饑
歧
棊
曁
暣
旂
覊
跂
蘷
墍
屺
忮
軝
頎
芑
掎
僛
羇
綦
緊
拮
佶
桔
姞
喫
那
拏
懦
拿
儺
娜
諾
暖
難
煖
戁
赧
捏
捺
陧
楠
枏
湳
納
衲
軜
娘
囊
曩
內
耐
奈
乃
柰
鼐
迺
撚
秊
涅
念
拈
恬
捻
寧
寗
獰
甯
佞
怒
努
奴
弩
駑
瑙
峱
猱
呶
孥
砮
怓
農
濃
膿
穠
腦
惱
餒
尿
撓
鬧
耨
嫩
訥
紐
杻
忸
鈕
狃
能
泥
尼
你
柅
怩
溺
匿
昵
多
茶
爹
短
團
壇
斷
單
檀
端
段
旦
但
丹
鍛
湍
蛋
簞
緞
亶
彖
袒
鄲
漙
慱
襢
癉
煅
達
撻
疸
獺
澾
怛
闥
談
擔
淡
潭
膽
憺
曇
澹
痰
譚
錟
坍
啖
覃
蕁
聃
湛
惔
萏
餤
驔
髧
耼
菼
窞
黮
答
踏
畓
遝
沓
堂
當
糖
唐
塘
撞
棠
螳
戇
幢
儻
鏜
鐺
螗
倘
待
帶
隊
臺
貸
戴
垈
擡
袋
黛
岱
坮
玳
祋
譈
懟
憝
德
悳
圖
度
到
都
導
徒
盜
逃
渡
桃
倒
陶
途
刀
跳
挑
塗
稻
悼
燾
搗
鍍
蹈
賭
萄
禱
睹
濤
屠
淘
掉
堵
滔
嶋
覩
韜
櫂
棹
翿
咷
闍
稌
檮
擣
慆
鼗
叨
綯
荼
謟
鞉
瘏
忉
讀
獨
毒
督
篤
禿
瀆
犢
牘
纛
匵
櫝
黷
敦
豚
惇
燉
頓
沌
暾
遯
旽
墩
焞
突
乭
動
同
洞
冬
童
銅
凍
棟
桐
董
疼
瞳
胴
憧
仝
潼
僮
侗
烔
罿
彤
蝀
頭
斗
豆
杜
兜
痘
竇
荳
逗
枓
斁
屯
鈍
臀
遁
芚
得
登
等
燈
騰
藤
謄
鄧
橙
嶝
螣
滕
縢
羅
裸
邏
螺
懶
癩
喇
蘿
臝
蠃
樂
落
絡
洛
駱
烙
酪
珞
雒
亂
卵
欄
蘭
爛
瀾
鸞
欒
闌
瓓
剌
辣
捋
覽
濫
藍
籃
嵐
襤
擥
攬
纜
欖
拉
蠟
臘
朗
浪
廊
郞
狼
螂
琅
瑯
稂
來
萊
崍
徠
勑
倈
騋
冷
略
掠
良
量
兩
糧
涼
梁
諒
輛
樑
亮
倆
粱
粮
凉
旅
麗
慮
勵
廬
礪
呂
驪
侶
戾
濾
閭
黎
藜
驢
儷
櫚
蠣
犁
膂
厲
蠡
藘
力
歷
曆
瀝
礫
轢
靂
櫟
鬲
酈
練
連
鍊
蓮
聯
戀
憐
煉
漣
輦
攣
璉
孌
列
烈
裂
劣
冽
洌
栵
廉
濂
斂
殮
簾
蘞
獵
領
令
靈
嶺
零
玲
齡
囹
逞
鈴
聆
伶
怜
羚
岺
笭
翎
蛉
苓
姈
昤
例
禮
隷
醴
澧
鱧
老
路
勞
露
爐
鷺
蘆
魯
虜
擄
撈
瀘
潞
櫓
輅
鹵
纑
簵
壚
綠
錄
祿
鹿
麓
碌
菉
彔
論
弄
籠
壟
聾
瓏
瀧
朧
隴
賴
雷
賂
磊
牢
儡
瀨
賚
耒
罍
料
僚
了
療
遼
燎
瞭
聊
寥
寮
蓼
廖
敹
繚
潦
漏
樓
累
淚
屢
壘
陋
褸
蔞
瘻
縷
鏤
婁
摟
流
類
留
柳
硫
謬
劉
琉
溜
瘤
旒
榴
瀏
瑠
纍
懰
罶
藟
虆
駵
六
陸
戮
僇
穋
輪
倫
崙
淪
綸
侖
律
率
栗
慄
隆
肋
勒
凜
懍
廩
陵
楞
稜
綾
凌
菱
里
利
理
離
吏
履
裏
梨
悧
籬
釐
俚
裡
痢
罹
狸
羸
莉
厘
唎
鯉
浬
璃
纚
莅
詈
俐
縭
离
涖
梩
隣
麟
吝
鱗
燐
躪
璘
藺
潾
粼
鄰
臨
淋
霖
琳
立
笠
粒
砬
苙
馬
磨
麻
摩
痲
魔
碼
瑪
禡
漠
莫
幕
膜
寞
邈
藐
瘼
萬
滿
晩
慢
漫
娩
灣
蠻
輓
饅
蔓
鰻
卍
彎
挽
瞞
万
巒
曼
鏋
墁
末
靺
抹
沫
襪
唜
茉
秣
望
亡
妄
忘
茫
忙
罔
網
芒
惘
莽
邙
輞
蘉
每
買
賣
妹
媒
梅
埋
魅
枚
煤
罵
邁
呆
昧
寐
脢
沬
韎
霾
鋂
痗
浼
苺
勱
脈
麥
貊
驀
陌
貉
霢
孟
猛
盲
盟
萌
氓
覓
冪
面
勉
眠
綿
免
俛
沔
冕
棉
眄
緬
麪
麵
湎
滅
蔑
篾
幭
命
鳴
銘
冥
溟
皿
螟
暝
酩
椧
瞑
蓂
茗
袂
母
毛
模
謀
貌
慕
某
暮
募
冒
侮
矛
帽
茅
謨
牟
摸
牡
糢
耗
芼
眸
瑁
姆
摹
麰
眊
旄
耄
髦
蟊
木
目
牧
睦
沐
穆
鶩
霂
楘
沒
歿
蒙
夢
朦
饛
幪
濛
矇
墓
妙
卯
廟
苗
昴
猫
描
杳
渺
竗
錨
眇
貓
茆
務
舞
貿
茂
戊
霧
巫
蕪
畝
毋
撫
拇
憮
誣
楙
珷
繆
鵡
懋
无
儛
廡
膴
髳
墨
默
纆
門
問
聞
紋
紊
汶
蚊
吻
刎
們
雯
捫
炆
璊
穈
物
勿
沕
米
未
味
微
尾
迷
眉
彌
靡
薇
媚
湄
謎
渼
楣
黴
梶
嵋
麋
亹
弭
敉
糜
郿
瀰
敏
憫
旻
閔
玟
珉
旼
悶
泯
岷
愍
緡
慜
敃
潣
忞
痻
暋
黽
密
蜜
謐
博
拍
迫
薄
泊
舶
膊
搏
縛
箔
撲
剝
珀
樸
粕
駁
璞
雹
亳
鎛
襮
鉑
半
班
般
盤
飯
伴
叛
返
搬
潘
磻
槃
斑
礬
絆
畔
蟠
頒
攀
拌
瘢
泮
盼
磐
鞶
胖
髮
拔
渤
鉢
跋
勃
魃
醱
潑
撥
茇
浡
軷
方
放
防
房
訪
妨
芳
倣
傍
邦
紡
旁
龐
彷
尨
謗
坊
膀
幇
昉
肪
榜
枋
蒡
滂
磅
舫
蚌
厖
雱
逄
魴
幫
倍
拜
背
配
輩
培
排
杯
賠
俳
裵
陪
胚
湃
徘
裴
盃
褙
焙
桮
白
百
伯
柏
魄
帛
栢
佰
番
繁
飜
煩
藩
蕃
樊
燔
幡
翻
蘩
袢
墦
罰
伐
閥
筏
犯
範
凡
汎
范
帆
梵
氾
泛
杋
琺
壁
碧
僻
癖
劈
闢
擘
璧
霹
蘗
檗
辟
甓
變
邊
辯
辨
弁
卞
騈
籩
釆
別
鼈
瞥
鱉
病
兵
丙
竝
屛
倂
昺
昞
秉
柄
炳
甁
餠
棅
幷
輧
荓
怲
迸
缾
保
步
報
寶
普
譜
補
甫
輔
潽
菩
堡
洑
褓
湺
珤
鴇
黼
服
福
復
伏
複
覆
腹
卜
馥
鰒
僕
匐
輻
輹
宓
蔔
茯
濮
楅
葍
扑
鍑
本
乶
奉
鳳
封
峯
逢
蜂
俸
縫
蓬
鋒
烽
捧
棒
琫
峰
熢
菶
丰
唪
葑
芃
父
夫
部
府
副
婦
否
負
符
付
浮
賦
腐
附
簿
扶
赴
敷
膚
傅
釜
阜
賻
駙
訃
芙
腑
斧
埠
咐
剖
俯
孵
孚
鳧
趺
艀
溥
缶
莩
祔
拊
痡
紑
鈇
裒
蜉
芣
鮒
掊
罦
俘
桴
分
粉
憤
奔
奮
紛
墳
芬
扮
雰
盆
焚
吩
噴
忿
糞
昐
汾
賁
幩
鼖
饙
苯
蕡
濆
棼
枌
豶
不
佛
拂
弗
彿
紼
咈
紱
笰
巿
黻
茀
艴
芾
崩
朋
鵬
棚
硼
繃
比
費
鼻
飛
備
悲
批
祕
碑
妃
婢
肥
卑
匪
泌
丕
毖
毘
誹
砒
妣
鄙
譬
裨
臂
脾
翡
扉
秕
痺
琵
沸
憊
匕
蜚
庇
緋
斐
榧
枇
粃
菲
秘
毗
閟
剕
圮
埤
庳
悱
棐
淠
紕
腓
俾
轡
痹
霏
騑
伾
奰
岯
朏
畀
秠
篚
鞞
駓
貔
羆
仳
貧
賓
頻
彬
殯
濱
嬪
嚬
瀕
檳
浜
牝
玭
斌
繽
邠
璸
儐
擯
鬢
豳
蠙
蘋
氷
聘
馮
憑
騁
四
使
史
士
仕
寫
思
査
寺
師
謝
舍
辭
私
絲
射
邪
沙
司
蛇
斜
詞
祀
巳
捨
斯
詐
賜
似
赦
飼
唆
泗
些
麝
祠
紗
嗣
奢
娑
徙
瀉
獅
蓑
篩
肆
俟
渣
梭
柶
僿
裟
砂
乍
莎
伺
駟
鯊
耜
笥
戺
涘
簑
傞
汜
榭
糸
葸
蓰
蹝
削
朔
鑠
算
産
散
傘
酸
疝
珊
刪
汕
蒜
霰
潸
殺
撒
煞
薩
乷
森
蔘
滲
衫
杉
芟
揷
澁
鈒
颯
歃
商
賞
常
床
想
狀
傷
象
霜
裳
桑
喪
詳
尙
像
償
祥
嘗
箱
庠
爽
翔
觴
孀
牀
峠
橡
廂
湘
鱨
塽
殤
顙
璽
賽
色
索
塞
嗇
穡
牲
甥
笙
眚
西
書
序
恕
緖
徐
署
暑
敍
逝
庶
誓
瑞
舒
抒
棲
犀
胥
薯
黍
嶼
曙
鼠
壻
絮
筮
栖
鋤
墅
捿
鱮
噬
婿
湑
澨
紓
諝
癙
藇
夕
席
石
惜
釋
昔
析
碩
奭
晳
潟
蓆
汐
淅
鼫
螫
裼
腊
鉐
舃
線
鮮
仙
選
船
宣
禪
旋
繕
璇
瑄
璿
煽
銑
膳
羨
扇
腺
詵
僊
鐥
琁
蟬
蘚
饍
癬
嬋
跣
渲
敾
墡
愃
僎
墠
毨
珗
雪
說
設
舌
薛
卨
屑
泄
洩
渫
齧
褻
楔
暬
偰
紲
挈
絏
纖
陝
蟾
暹
閃
殲
贍
憸
攝
涉
燮
韘
姓
省
誠
聲
盛
聖
城
星
晟
醒
惺
腥
珹
宬
猩
筬
瑆
騂
娍
洗
歲
勢
稅
細
貰
笹
帨
少
所
消
笑
掃
素
訴
燒
疏
蘇
召
昭
蔬
騷
紹
沼
巢
邵
簫
塑
遡
逍
蕭
瘙
疎
甦
梳
宵
搔
嘯
瀟
銷
溯
篠
韶
炤
愬
艘
蛸
玿
埽
翛
繅
蠨
霄
愫
慅
柖
速
束
續
俗
屬
粟
贖
涑
謖
餗
樕
蔌
觫
藚
孫
損
遜
蓀
巽
飡
飱
飧
蟀
送
頌
松
訟
誦
宋
悚
淞
竦
鎖
刷
碎
灑
洒
瑣
衰
釗
手
數
樹
首
修
受
守
授
收
秀
愁
壽
帥
殊
輸
隨
需
垂
獸
睡
須
雖
誰
搜
囚
遂
銖
隋
洙
蒐
嫂
戍
髓
酬
袖
羞
狩
繡
粹
竪
穗
瘦
讎
蓚
綬
綏
琇
鬚
漱
峀
銹
嗽
邃
璲
藪
隧
讐
燧
茱
岫
脩
魗
叟
售
廋
殳
濉
睟
瞍
豎
檖
繻
穟
宿
叔
肅
淑
熟
孰
夙
菽
塾
琡
璹
潚
橚
俶
順
純
旬
瞬
巡
循
殉
脣
盾
舜
珣
淳
洵
荀
醇
筍
馴
詢
錞
徇
恂
栒
楯
橓
蓴
諄
蕣
漘
犉
肫
郇
鶉
術
述
戌
鉥
崇
嵩
崧
瑟
膝
蝨
璱
習
濕
拾
襲
褶
隰
熠
勝
承
乘
昇
僧
升
繩
丞
陞
蠅
時
始
示
詩
試
視
施
是
侍
矢
屍
柴
柿
匙
媤
弑
猜
諡
豺
豕
恃
翅
蒔
蓍
尸
嘶
屎
諟
枲
塒
啻
兕
偲
鳲
釃
緦
食
植
式
識
息
飾
殖
軾
湜
熄
蝕
拭
寔
篒
埴
栻
身
信
臣
申
愼
辛
伸
晨
紳
腎
薪
迅
蜃
燼
宸
娠
呻
訊
侁
莘
藎
駪
贐
矧
甡
璶
哂
室
失
實
悉
蟋
深
甚
審
尋
瀋
芯
諶
沁
葚
諗
十
什
雙
氏
兒
雅
我
阿
亞
芽
牙
餓
訝
衙
啞
俄
娥
峨
莪
蛾
鴉
鵝
迓
惡
岳
握
堊
愕
顎
嶽
渥
鰐
幄
鍔
鄂
齷
咢
案
眼
顔
岸
雁
晏
鞍
按
鮟
鴈
犴
謁
閼
斡
軋
訐
遏
頞
歹
戛
揠
暗
巖
癌
闇
庵
菴
岩
唵
黯
壓
押
鴨
狎
仰
央
殃
昂
怏
秧
鴦
昻
泱
盎
鞅
卬
愛
哀
涯
礙
艾
埃
崖
曖
隘
靄
碍
厓
餲
藹
僾
液
額
厄
扼
腋
縊
掖
頟
戹
阨
櫻
鶯
罌
鸚
嚶
夜
也
耶
惹
倻
揶
冶
爺
椰
弱
藥
約
若
躍
葯
蒻
瀹
籥
禴
陽
洋
養
羊
樣
讓
壤
揚
楊
孃
襄
攘
恙
釀
癢
瘍
瀁
佯
敭
暘
禳
痒
穰
煬
颺
饟
昜
瀼
漾
鍚
語
漁
魚
御
於
圄
禦
瘀
齬
馭
敔
饇
飫
圉
億
憶
抑
臆
檍
嶷
言
焉
彦
堰
諺
偃
鰋
唁
蘖
孼
臬
孽
臲
嚴
掩
奄
儼
淹
俺
閹
揜
渰
業
嶪
餘
如
輿
汝
余
予
璵
艅
轝
歟
茹
礖
旟
鸒
洳
畬
逆
域
易
疫
亦
役
譯
驛
繹
鷊
鶂
罭
埸
嶧
棫
晹
淢
緎
懌
閾
然
煙
硏
演
燃
鉛
緣
延
沿
軟
宴
燕
硯
衍
姸
淵
鳶
捐
筵
椽
嚥
縯
烟
涓
挻
堧
沇
娟
涎
醼
蜎
掾
悁
兗
熱
悅
閱
噎
染
鹽
炎
厭
閻
焰
艶
剡
琰
苒
髥
艷
饜
焱
檿
燄
冉
葉
燁
曄
饁
爗
迎
映
營
影
詠
泳
盈
瑛
暎
嬰
渶
濚
嶸
楹
塋
潁
瀛
煐
鍈
纓
瓔
瀯
霙
穎
咏
嬴
縈
贏
郢
攖
藝
豫
譽
銳
預
芮
睿
濊
詣
曳
穢
裔
刈
乂
霓
倪
叡
汭
蘂
猊
瘞
輗
羿
橤
堄
勩
麑
鷖
蚋
蕊
翳
睨
蓺
五
午
誤
烏
悟
嗚
娛
吾
傲
汚
梧
墺
吳
奧
懊
伍
寤
鰲
塢
獒
晤
俉
蜈
鼇
筽
旿
澳
熬
敖
珸
忤
汙
隩
嗸
杇
奡
屋
玉
獄
鈺
沃
鋈
溫
穩
蘊
瑥
縕
瘟
韞
慍
媼
昷
醞
兀
杌
扤
卼
擁
翁
甕
雍
邕
壅
瓮
饔
癰
灉
雝
廱
顒
瓦
臥
訛
渦
蝸
窪
蛙
窩
吪
完
緩
莞
婉
宛
玩
腕
阮
頑
豌
椀
琓
琬
翫
碗
浣
脘
婠
盌
垸
曰
往
汪
旺
枉
歪
倭
矮
娃
騧
畏
巍
猥
嵬
要
曜
謠
遙
腰
搖
妖
姚
堯
耀
擾
窈
窯
邀
饒
僥
凹
拗
夭
瑤
繞
繇
橈
蟯
嶢
燿
徭
蕘
喓
殀
葽
鷕
徼
浴
慾
欲
辱
縟
褥
勇
用
庸
熔
傭
瑢
溶
鎔
鏞
踊
蓉
茸
聳
涌
冗
榕
俑
墉
甬
湧
埇
慂
鄘
宂
踴
右
友
雨
牛
優
遇
郵
憂
偶
宇
愚
羽
于
尤
又
佑
禹
祐
虞
迂
寓
嵎
隅
釪
禑
旴
玗
瑀
盂
藕
雩
紆
芋
盱
吁
俁
堣
楀
耦
訏
懮
噳
麌
麀
踽
耰
訧
旭
昱
煜
郁
頊
栯
彧
勖
稶
稢
薁
勗
燠
運
雲
韻
云
芸
耘
殞
隕
蕓
澐
橒
熉
沄
篔
鬱
蔚
亐
菀
雄
熊
園
遠
原
院
願
圓
怨
援
源
苑
瑗
袁
媛
冤
猿
鴛
垣
轅
円
湲
沅
嫄
愿
洹
寃
爰
黿
騵
月
越
鉞
刖
軏
偉
位
衛
爲
圍
威
慰
危
胃
僞
謂
違
緯
尉
渭
韋
魏
萎
暐
葦
瑋
蔿
蝟
褘
藯
韡
喟
煒
闈
有
由
油
遊
乳
儒
遺
猶
幽
幼
柔
維
裕
誘
悠
唯
酉
愈
惟
庾
兪
踰
楡
揄
柚
游
鍮
癒
諛
諭
蹂
喩
愉
宥
孺
猷
瑜
釉
逾
萸
濡
侑
洧
楢
攸
臾
滺
秞
濰
褎
槱
楰
曘
卣
龥
籲
黝
醹
莠
輶
鮪
窬
緌
呦
囿
帷
揉
牖
羑
育
肉
毓
堉
潤
閏
允
胤
鈗
玧
贇
奫
狁
阭
聿
繘
驈
汩
鴥
融
絨
戎
瀜
恩
隱
垠
誾
殷
慇
嚚
憖
檼
溵
訔
音
飮
陰
淫
吟
蔭
邑
泣
揖
挹
浥
應
凝
鷹
膺
意
醫
衣
議
依
儀
疑
矣
宜
毅
椅
擬
誼
薏
艤
倚
懿
蟻
猗
饐
扆
薿
劓
二
以
耳
移
異
已
而
夷
貳
怡
伊
珥
餌
姨
痍
爾
弛
彛
貽
飴
苡
荑
肄
邇
洟
詒
苢
樲
异
刵
桋
訑
杝
彝
頤
迤
益
翼
翊
翌
謚
瀷
弋
因
印
引
認
忍
寅
姻
刃
蚓
靭
咽
湮
茵
靷
絪
駰
陻
仞
夤
禋
牣
訒
闉
軔
逸
壹
佾
鎰
溢
佚
馹
泆
任
壬
賃
妊
恁
荏
稔
姙
袵
衽
入
卄
剩
孕
仍
芿
陾
字
資
姿
姉
紫
慈
刺
恣
玆
磁
諮
雌
滋
疵
仔
蔗
炙
煮
藉
瓷
咨
孜
茨
鼒
孶
赭
鎡
秭
訿
貲
訾
茲
胾
耔
粢
柘
胏
作
昨
酌
爵
炸
勺
灼
綽
嚼
芍
雀
鵲
斫
柞
殘
盞
棧
潺
孱
僝
暫
潛
蠶
箴
簪
岑
雜
場
章
將
障
獎
裝
腸
壯
帳
莊
葬
臟
粧
掌
丈
藏
墻
獐
庄
璋
蔣
檣
薔
漿
醬
杖
匠
仗
贓
牆
臧
樟
欌
暲
漳
粻
斨
鏘
牂
戕
奘
萇
才
財
材
災
再
栽
裁
載
哉
宰
齋
滓
梓
齎
縡
渽
灾
纔
賫
爭
錚
箏
諍
貯
低
底
著
抵
沮
狙
豬
箸
咀
詛
躇
邸
觝
姐
齟
這
藷
菹
苧
雎
疽
紵
佇
杵
楮
樗
渚
猪
儲
羜
氐
罝
砠
疷
苴
羝
杼
筯
的
赤
敵
積
籍
適
績
賊
跡
寂
笛
摘
蹟
滴
嫡
謫
狄
迹
荻
迪
鏑
勣
翟
糴
趯
逖
籊
覿
踖
電
傳
典
展
專
轉
錢
殿
甸
塡
箋
餞
顫
顚
銓
輾
纏
栓
箭
廛
癲
煎
澱
剪
氈
悛
篆
奠
筌
佺
塼
佃
鈿
鐫
詮
畑
琠
腆
翦
邅
靦
顓
闐
旃
巓
戩
荃
瘨
牷
瀍
鱣
飦
畋
節
切
絶
折
竊
截
浙
癤
晢
晣
店
點
占
漸
霑
粘
岾
鮎
点
玷
墊
坫
簟
接
蝶
摺
庭
定
情
停
程
精
靜
丁
整
淨
頂
井
亭
廷
貞
征
訂
艇
偵
呈
汀
楨
晶
鼎
禎
旌
珽
錠
挺
町
睛
碇
穽
釘
靖
幀
酊
淀
湞
炡
渟
晸
姃
鉦
諪
鋌
綎
檉
瀞
霆
玎
梃
阱
赬
裎
涏
靚
鋥
酲
桯
棖
珵
弟
第
題
濟
提
制
製
除
際
祭
帝
諸
齊
堤
劑
啼
梯
悌
蹄
醍
霽
薺
臍
隮
禔
鵜
穧
泲
懠
嚌
隄
躋
稊
瑅
娣
蠐
祖
朝
調
操
鳥
助
早
造
條
潮
組
租
照
兆
燥
弔
措
釣
彫
曺
祚
詔
藻
躁
阻
凋
嘲
曹
棗
粗
肇
遭
槽
繰
糟
稠
漕
爪
眺
蚤
俎
晁
璪
雕
吊
窕
鞗
阼
螬
蓧
罩
旐
慥
鰷
殂
皂
佻
洮
鼂
蜩
蔦
竈
皁
恌
懆
徂
足
族
簇
鏃
尊
存
卒
拙
猝
種
終
宗
從
縱
綜
琮
踵
慫
腫
踪
棕
淙
悰
鐘
倧
螽
尰
蹤
瑽
豵
樅
鬷
椶
左
座
坐
佐
挫
脞
罪
住
主
注
晝
週
走
酒
朱
周
柱
珠
奏
洲
鑄
宙
舟
駐
疇
躊
輳
誅
做
胄
呪
嗾
廚
紂
紬
註
澍
侏
湊
炷
籌
冑
蛛
綢
酎
姝
妵
侜
幬
裯
輈
遒
咮
燽
譸
躕
邾
馵
霔
竹
粥
鬻
準
遵
俊
准
駿
濬
浚
晙
峻
埈
竣
樽
蠢
畯
儁
雋
逡
寯
焌
噂
埻
蹲
隼
鱒
茁
崒
衆
仲
卽
櫛
騭
葺
汁
緝
楫
濈
戢
增
證
憎
曾
症
蒸
贈
甑
拯
烝
繒
璔
紙
知
止
志
指
支
至
持
智
誌
池
枝
只
遲
脂
旨
芝
址
咫
摯
枳
祉
肢
漬
芷
砥
贄
蜘
沚
祗
趾
篪
踟
蚳
輊
鋕
坻
直
職
織
稷
稙
進
眞
珍
盡
陣
陳
震
鎭
辰
振
診
津
塵
秦
晋
嗔
疹
唇
瑨
溱
榛
軫
晉
畛
搢
瞋
縝
臻
蔯
桭
賑
縉
璡
殄
袗
鬒
螓
禛
蓁
瑱
紾
質
疾
秩
姪
窒
帙
桎
膣
叱
跌
迭
嫉
蛭
侄
瓆
垤
絰
銍
蒺
礩
挃
耋
瓞
朕
斟
集
執
輯
潗
鏶
徵
懲
澄
次
差
此
借
且
遮
叉
嗟
蹉
箚
磋
侘
嵯
瑳
佌
泚
佽
着
錯
捉
搾
窄
鑿
齪
斮
斲
讚
贊
餐
瓚
鑽
璨
燦
撰
纂
饌
篡
竄
簒
澯
纘
粲
爨
巑
湌
察
刹
札
擦
紮
扎
參
慙
慘
斬
塹
站
僭
懺
讒
讖
憯
譖
毚
窓
唱
創
蒼
倉
暢
滄
彰
敞
昶
槍
脹
娼
猖
廠
瘡
倡
艙
菖
愴
漲
搶
瑲
蹌
窗
鶬
悵
鬯
韔
採
債
彩
菜
埰
采
蔡
寨
綵
寀
釵
砦
瘥
瘵
蠆
責
冊
策
柵
簀
處
妻
悽
凄
萋
尺
戚
拓
斥
隻
陟
瘠
滌
脊
擲
慽
倜
蹠
剔
坧
蹢
惕
蹐
慼
跖
千
川
泉
踐
賤
淺
遷
薦
釧
闡
穿
擅
喘
玔
韆
仟
舛
阡
梴
遄
幝
倩
俴
鐵
哲
徹
撤
澈
喆
轍
綴
凸
輟
歠
驖
惙
啜
掇
尖
添
瞻
籤
僉
諂
詹
沾
甛
簽
襜
餂
覘
忝
妾
諜
帖
貼
疊
牒
捷
睫
輒
堞
淸
請
聽
廳
晴
菁
鯖
體
滯
遞
逮
替
締
涕
諦
剃
疐
彘
棣
嚔
掣
杕
禘
蝃
遆
髢
揥
草
初
招
超
肖
礎
抄
秒
哨
焦
楚
貂
礁
硝
憔
醋
蕉
樵
梢
稍
炒
酢
椒
苕
艸
醮
剿
誚
勦
悄
譙
觸
促
燭
蜀
囑
矗
蠋
躅
寸
村
忖
邨
總
銃
聰
叢
塚
寵
蔥
摠
憁
悤
冢
潨
撮
最
催
摧
嘬
凗
秋
推
追
醜
抽
趨
鄒
楸
槌
樞
芻
墜
鰍
鎚
酋
錐
錘
椎
皺
萩
湫
諏
雛
騶
瘳
鄹
萑
緅
棸
麤
鶖
鵻
甃
縐
騅
蝤
祝
築
蓄
縮
畜
逐
丑
蹴
軸
蹙
筑
竺
蓫
柷
蹜
妯
顣
踧
春
椿
瑃
賰
杶
出
黜
朮
怵
充
忠
蟲
衝
衷
沖
忡
珫
虫
贅
悴
膵
萃
揣
惴
瘁
取
就
趣
吹
醉
臭
炊
聚
娶
翠
脆
鷲
嘴
驟
毳
測
側
惻
厠
仄
昃
廁
層
致
治
置
齒
値
恥
稚
峙
雉
幟
嗤
痔
侈
熾
癡
緻
馳
輜
痴
穉
蚩
淄
緇
梔
褫
懫
庤
寘
懥
鴟
觶
菑
哆
絺
則
勅
飭
七
漆
柒
侵
寢
針
浸
沈
枕
鍼
砧
琛
忱
綅
寑
駸
蟄
縶
稱
秤
快
夬
噲
他
打
妥
墮
駝
楕
惰
唾
陀
舵
朶
馱
拖
咤
紽
佗
沱
鮀
鼉
它
嶞
卓
托
濁
濯
琢
託
擢
鐸
倬
啄
坼
晫
柝
琸
橐
椓
蘀
炭
歎
彈
誕
灘
呑
坦
憚
綻
嘆
嘽
驒
殫
僤
疃
脫
奪
梲
探
貪
耽
眈
醓
嗿
塔
搭
榻
漯
湯
宕
蕩
帑
簜
蝪
盪
太
態
殆
怠
颱
胎
兌
台
笞
苔
跆
汰
邰
駾
迨
宅
擇
澤
撐
撑
攄
土
討
吐
兔
兎
噋
噸
瓲
畽
啍
通
統
痛
慟
桶
筒
恫
退
頹
堆
褪
腿
蓷
魋
隤
投
鬪
透
套
妬
偸
渝
特
慝
忒
闖
波
破
派
播
把
罷
頗
坡
巴
爬
琶
芭
跛
婆
杷
擺
嶓
皤
豝
簸
板
判
版
販
阪
辦
坂
鈑
瓣
昄
八
捌
叭
敗
貝
霸
沛
牌
悖
唄
佩
稗
浿
覇
狽
旆
粺
茷
孛
彭
膨
澎
烹
祊
伻
愎
便
篇
編
片
偏
遍
扁
鞭
騙
翩
徧
褊
諞
貶
評
坪
萍
枰
苹
閉
肺
廢
弊
幣
蔽
斃
陛
嬖
吠
敝
砲
包
布
胞
捕
浦
抱
飽
怖
鋪
抛
鮑
葡
疱
庖
逋
褒
袍
匍
脯
泡
圃
哺
咆
蒲
佈
苞
匏
麃
襃
餔
炰
炮
暴
爆
幅
曝
瀑
表
票
標
漂
杓
豹
慓
飄
剽
俵
彪
驃
瓢
飇
鑣
滮
瀌
飆
摽
殍
嘌
儦
品
稟
風
豊
楓
諷
豐
灃
疲
避
被
皮
彼
披
陂
詖
必
筆
畢
匹
弼
疋
苾
珌
馝
佖
鉍
怭
駜
鞸
觱
飶
逼
乏
偪
下
夏
河
荷
賀
何
霞
遐
蝦
瑕
廈
厦
昰
鰕
騢
芐
呀
嘏
菏
鶴
虐
壑
謔
瘧
翯
漢
寒
限
閑
恨
汗
旱
翰
邯
罕
悍
澣
瀚
閒
扞
暵
哻
熯
僩
割
轄
劼
舝
含
陷
咸
艦
緘
涵
檻
喊
函
銜
鹹
啣
諴
鬫
菡
合
盒
蛤
闔
閤
哈
嗑
柙
盍
航
港
抗
恒
項
巷
沆
亢
缸
肛
桁
姮
杭
嫦
伉
頏
害
解
亥
奚
該
諧
骸
楷
偕
駭
懈
咳
邂
蟹
瀣
孩
垓
陔
醢
核
劾
覈
幸
杏
荇
倖
悻
向
鄕
香
響
享
嚮
饗
珦
餉
許
虛
噓
墟
栩
憲
獻
軒
櫶
巘
歇
驗
險
玁
獫
革
爀
赫
奕
侐
洫
焃
虩
衋
現
賢
顯
懸
玄
絃
縣
弦
峴
鉉
炫
衒
眩
絢
睍
俔
晛
玹
舷
泫
鞙
儇
嬛
昡
駽
莧
怰
血
穴
孑
頁
絜
嫌
協
脅
峽
陜
俠
挾
狹
頰
脇
浹
夾
鋏
莢
冾
恊
兄
形
刑
衡
亨
螢
型
馨
邢
瑩
炯
瀅
荊
灐
烱
滎
泂
逈
珩
鎣
熒
惠
慧
兮
彗
醯
暳
蹊
鞋
蕙
嘒
憓
盻
徯
傒
譓
號
湖
好
戶
護
呼
浩
豪
胡
虎
乎
互
毫
濠
壕
扈
昊
鎬
澔
皓
祜
晧
糊
弧
狐
瑚
琥
蒿
葫
芦
壺
蝴
頀
顥
縞
灝
瓠
滸
岵
淏
濩
薅
皥
皜
怙
嘑
或
惑
酷
婚
混
魂
昏
渾
琿
惛
忽
笏
惚
紅
洪
鴻
弘
泓
哄
訌
虹
烘
汞
鉷
鬨
洚
火
話
花
畫
化
貨
華
禍
禾
靴
樺
嬅
譁
畵
確
穫
擴
碻
攫
雘
矍
患
歡
環
還
換
丸
幻
煥
桓
宦
鰥
喚
驩
奐
晥
紈
渙
芄
鐶
鍰
豢
逭
睆
懽
圜
活
滑
猾
闊
豁
濶
黃
況
皇
荒
晃
滉
煌
徨
遑
恍
慌
凰
惶
篁
榥
湟
潢
璜
簧
蝗
幌
愰
晄
隍
喤
堭
媓
會
回
灰
懷
悔
廻
淮
檜
賄
誨
蛔
膾
繪
晦
徊
恢
匯
澮
茴
獪
頮
洄
薈
獲
劃
擭
橫
鐄
宖
孝
效
曉
嚆
爻
酵
哮
驍
斅
梟
淆
涍
肴
鴞
効
嘵
傚
囂
殽
虓
後
厚
候
侯
喉
后
逅
朽
嗅
吼
帿
珝
煦
酗
餱
鍭
詡
訓
勳
熏
薰
壎
暈
焄
塤
勛
燻
纁
鑂
薨
喧
暄
萱
煊
貆
諼
咺
諠
毁
喙
卉
虺
揮
輝
徽
麾
彙
諱
煇
暉
翬
休
携
烋
虧
畦
觿
睢
咻
攜
恤
譎
鷸
遹
凶
胸
匈
兇
洶
訩
黑
欣
痕
昕
炘
釁
忻
屹
吃
紇
訖
齕
迄
汔
仡
欽
歆
欠
吸
洽
恰
翕
潝
興
希
喜
稀
戲
姬
噫
熹
憙
嬉
羲
禧
犧
熺
凞
僖
囍
憘
戱
晞
曦
饎
咥
嘻
爔
豨
餼
橲
詰
襭
率
ぁ
あ
ぃ
い
ぅ
う
ぇ
え
ぉ
お
か
が
き
ぎ
く
ぐ
け
げ
こ
ご
さ
ざ
し
じ
す
ず
せ
ぜ
そ
ぞ
た
だ
ち
ぢ
っ
つ
づ
て
で
と
ど
な
に
ぬ
ね
の
は
ば
ぱ
ひ
び
ぴ
ふ
ぶ
ぷ
へ
べ
ぺ
ほ
ぼ
ぽ
ま
み
む
め
も
ゃ
や
ゅ
ゆ
ょ
よ
ら
り
る
れ
ろ
ゎ
わ
ゐ
ゑ
を
ん
ゔ
ゕ
ゖ
゗
゘
゙
゚
゛
゜
ゝ
ゞ
ゟ
゠
ァ
ア
ィ
イ
ゥ
ウ
ェ
エ
ォ
オ
カ
ガ
キ
ギ
ク
グ
ケ
ゲ
コ
ゴ
サ
ザ
シ
ジ
ス
ズ
セ
ゼ
ソ
ゾ
タ
ダ
チ
ヂ
ッ
ツ
ヅ
テ
デ
ト
ド
ナ
ニ
ヌ
ネ
ノ
ハ
バ
パ
ヒ
ビ
ピ
フ
ブ
プ
ヘ
ベ
ペ
ホ
ボ
ポ
マ
ミ
ム
メ
モ
ャ
ヤ
ュ
ユ
ョ
ヨ
ラ
リ
ル
レ
ロ
ヮ
ワ
ヰ
ヱ
ヲ
ン
ヴ
ヵ
ヶ
①
②
③
④
⑤
⑥
⑦
⑧
⑨
⑩
⑪
⑫
⑬
⑭
⑮
⑯
⑰
⑱
⑲
⑳
˚
헥
女
㏊
##빳
㎜
텝
갠
렸
놉
##걔
##갰
昫
÷
뢰
켰
뵀
ⅳ
##얏
쩨
맸
끕
盧
꿔
##홋
##낏
잴
른
##갛
##픕
빻
켕
맬
##맣
떱
##띵
㎞
##낍
둡
뻣
꿩
팹
##랖
##떵
##돛
羅
랏
셉
α
뻑
뎃
늄
ⅸ
##씸
##꿎
ℓ
뮈
뺑
##뵈
ｍ
닻
##쁩
멩
뎁
##슝
붑
휙
껏
##찐
〫
쌉
##슥
꿉
##멩
』
옻
뜁
##뿅
##쩐
댑
앎
뺍
뭍
줏
##잼
##윳
뺄
뙤
『
烈
훙
켤
##뼉
곗
！
늡
梁
##쳇
蘭
듭
##깽
##뷴
낌
떤
##꿉
##쓱
##퉜
깻
律
##텼
##넙
뼛
핼
밉
짭
＆
펩
끗
##볐
##낵
樂
넝
㎡
빳
㎉
릅
##겊
##숟
윕
럴
쐈
＋
禮
깝
튄
썪
##쁠
캅
劉
##웁
寧
죗
윷
흄
햅
##뀝
##맸
쫑
領
㎖
洛
빕
ⅵ
갉
솝
##끙
流
##뻤
퍽
콸
##욘
․
찡
멉
쳇
##뉩
뎀
##겟
낄
밂
㎤
쑨
댜
쏴
㏈
㏄
##쌩
##틉
魯
◦
엷
풂
–
쌌
㎓
툽
짰
땁
땠
찮
뗏
##밈
㎐
눔
팖
銲
##괘
덫
뗍
｢
老
랬
ⅰ
쬐
웜
윽
黙
##뫼
름
##쩨
##꽝
갭
鉆
틔
##똔
ꡐ
##쌕
닳
##뻣
튈
뭣
##뮈
뗀
㎎
걔
쌩
柳
##듐
##왑
뵌
㎘
㎝
쌕
텄
찐
꽹
令
##겋
탠
復
앴
##듦
㎾
멎
듄
##쾅
낍
㎥
##딨
렵
##갠
잤
##뚤
깹
펭
煉
땜
괘
뵐
곪
깼
삥
##푯
##콴
헹
沈
찹
쉔
쓱
둠
넛
됫
봬
뵜
숟
춰
칡
뒹
##좍
퇘
＝
呂
倫
댕
쭝
뿅
넙
깰
##냇
##넝
략
띕
##뎀
##댕
ⅶ
##숴
##늉
쐬
잿
삵
瑩
##뮴
##쪄
##찹
룟
팠
쪄
｣
℃
꺽
갹
洺
##냔
ꡑ
쌨
李
##꿍
긱
췐
볏
##땜
얕
##굣
##슭
샨
##쌔
옭
밧
泌
륭
렁
隆
理
맙
㉢
혔
잍
##쭐
##셌
쥴
㎍
띨
㎸
쩍
찝
냔
겟
겝
쩐
슥
슘
##텄
##뎠
##핌
쌔
푯
##촨
##폿
뵈
쟤
똔
챘
ⅱ
샬
픕
젯
멱
얌
㎏
뀐
쩔
닙
##찝
룹
뮬
젼
켭
嬿
셌
##샬
勞
##엾
ｔ
良
㎢
꼰
킷
連
퓰
利
ㆍ
꼈
휜
쥘
ꡒ
㏃
쫙
혓
뺌
킵
잽
쮜
핥
홧
뭅
##쌉
##쉥
²
꾹
㎒
횃
띵
##칟
됏
샜
덱
##옇
來
##뀜
##뷸
뀝
뜹
괸
슝
麗
##짢
##콸
##짇
껌
林
솎
옅
늠
끙
겼
₂
꽝
##핥
껀
빤
껐
핍
꿍
펨
꿨
##녜
쁩
쭌
〜
솥
돛
볍
##밉
ⅷ
－
렬
릳
##젼
％
굼
##엥
##꺽
띌
념
챗
늚
蓮
렴
ｒ
씰
ⅲ
렐
##뉠
짖
셸
龍
㎿
##뺌
줆
켑
쭸
잰
웁
##넜
##휼
퓻
뇨
떵
##멓
웠
㈜
팼
쇳
좍
튕
‥
귓
잼
）
챕
′
벳
##뇽
셧
㏏
##퍅
쏩
##챘
##뎅
ꡓ
##뺑
첵
풉
，
☆
⑵
쎈
셍
ⓕ
㉱
쉘
㉲
{
⑴
⑸
溜
㏜
◁
㉠
뇽
〔
⒝
딧
曆
暴
좆
◎
〕
㉡
∪
뉼
㉮
㎛
率
ⓛ
♥
켓
}
♤
³
㉤
ⓐ
六
휀
㉴
눠
裸
ⓑ
類
㉵
累
§
ⓖ
年
㉳
##뎃
##굼
㉣
켬
⑶
좃
륨
立
㉯
ⅴ
零
웍
量
₁
⑷
㉰
†
㎲
龜
⊙
##빤
럿
귄
픔
뷸
꽈
≥
땔
##퇘
γ
##븀
츨
〓
５
路
δ
留
√
㎑
｝
∨
歷
ｌ
σ
、
＜
##펩
ｋ
\
欄
콥
（
［
｛
렘
１
露
욜
ø
＞
죔
錄
곈
＊
㏁
벵
$
４
漏
´
˝
##퓸
肋
〃
⅓
匿
尿
兩
겅
識
㎫
裂
↔
：
㉓
㉕
㎟
ｇ
㉑
㎃
ω
㎳
##댑
２
㉒
а
㎨
６
##컹
㎼
㎧
₄
ː
깅
ｂ
㏅
㎩
힉
離
##놉
헵
．
粒
∇
⑹
］
㏓
챠
롼
㎽
⇒
ｄ
￦
⅔
▒
탬
럇
훅
㎠
３
㎪
≤
拓
ㅤ
㎕
ⓘ
諾
휨
ⅹ
㎶
앳
㉔
例
ß
｜
##통신
##요건
##의무
##진료
##판결
##신고
##건축
##등록
##생산
##기본
##변론
##이전
##청구
##가산
##채권
##양도
##조서
##증명
##침해
##소멸
##법원
##비서
##서명
##양수
##표준
##신탁
##포탈
##기관
##시스템
##소원
##결정
##보존
##번호
##세탁
##급여
##등급
##수용
##역류
##대서
##양식
##공권
##합동
##사정
##차단
##구금
##제명
##모식
##거부
##융자
##고등
##섭외
##평등
##영역
##고용
##해고
##합유
##대권
##관행
##구획
##헌장
##선화
##작량
##국가
##현상
##보정
##평화
##체포
##인력
##유치
##연고
##모형
##변용
##교회
##수송
##임용
##조약
##기후
##이론
##추행
##계몽
##결격
##압력
##제소
##검정
##전국
##과다
##비행
##판매
##전가
##살상
##설립
##이민
##문란
##백서
##경매
##이해
##상고
##왕제
##통제
##공범
##업무
##투기
##방해
##모용
##직업
##상태
##협동
##수속
##대여
##개혁
##교대
##제도
##주문
##임검
##영사
##예약
##면제
##총회
##정산
##면관
##경보
##주변
##조역
##형법
##공탁
##제안
##삼권
##근로
##과징
##군중
##접촉
##조례
##억류
##원수
##남용
##감방
##지식
##출두
##연령
##간접
##법칙
##특전
##검문
##전질
##귀화
##후생
##태업
##처지
##원칙
##환송
##전술
##인하
##체위
##입찰
##발명
##국민
##정당
##약관
##세출
##죄례
##지서
##인정
##부탁
##금액
##최고
##재심
##형태
##면세
##불안
##지주
##만화
##도급
##상근
##정년
##변혁
##근친
##측량
##법학
##총감
##징수
##규준
##대가
##진술
##항고
##내각
##시기
##도덕
##적상
##사문
##조인
##예속
##공조
##조절
##공채
##사민
##세제
##소작
##이혼
##체계
##무애
##예비
##예고
##오염
##안정
##점유
##사범
##제재
##상병
##계산
##수매
##강도
##표창
##지배
##세관
##용선
##예양
##청약
##적국
##변상
##준감
##사례
##사기
##향상
##부장
##유언
##기각
##산후
##봉쇄
##고문
##노련
##유제
##외혼
##서환
##동태
##요청
##주장
##처벌
##개년
##적법
##분규
##기피
##이식
##발동
##통계
##감정
##죄인
##보장
##전결
##대차
##편찬
##평면
##정신
##지정
##특혜
##양정
##고지
##송치
##적용
##원본
##검역
##증여
##긴장
##급부
##심리
##사법
##송검
##유린
##증감
##중단
##계급
##평정
##법령
##존속
##검속
##계획
##동권
##민법
##신장
##공존
##민족
##가격
##유사
##물권
##통치
##관여
##파공
##사찰
##해양
##민사
##약전
##비율
##모자
##상실
##사인
##판권
##구성
##송환
##부조
##판제
##표상
##경합
##성격
##직류
##약정
##여명
##종결
##인멸
##대회
##승계
##계정
##가계
##창고
##대대
##성적
##과잉
##수요
##사망
##직권
##법관
##불양
##위배
##명부
##독회
##부락
##장기
##대수
##권능
##시찰
##전선
##형사
##항구
##유증
##가능
##빙자
##광고
##기탁
##소구
##동결
##정체
##정학
##과소
##집단
##공보
##결합
##판단
##불법
##효력
##참작
##시점
##행동
##주식
##구제
##미약
##특권
##삼법
##목록
##세습
##도용
##이사
##오인
##양속
##선택
##동행
##축산
##소권
##감호
##병역
##단계
##행형
##치사
##개병
##의결
##주권
##개론
##점거
##진영
##응원
##식별
##대부
##해산
##치산
##득신
##적령
##수상
##방조
##사진
##긴급
##수권
##내혼
##증서
##정범
##대출
##집회
##매립
##전서
##법익
##분할
##병합
##판사
##각하
##공소
##수급
##증거
##환부
##토론
##통보
##강제
##이득
##수배
##협약
##쌍무
##권리
##본위
##회피
##수당
##실업
##수행
##제시
##종범
##박탈
##보훈
##시민
##환지
##협정
##변경
##적부
##역할
##확정
##계층
##감찰
##읍장
##홍기
##점령
##정관
##취재
##분산
##항해
##국채
##수표
##박약
##분업
##감등
##판정
##침입
##득면
##점용
##생략
##불능
##법전
##전매
##해체
##유인
##정감
##본적
##상표
##추인
##통론
##징판
##미수
##정돈
##임시
##검증
##해손
##유급
##농지
##권익
##잡거
##가속
##탈퇴
##공부
##항변
##독재
##법안
##장소
##납부
##공공
##피고
##연감
##출옥
##납세
##방어
##분가
##작업
##클랜
##귀착
##인과
##부재
##장관
##어업
##증지
##선언
##개서
##무인
##촉진
##상해
##통상
##자판
##송달
##설정
##파킹
##복합
##압수
##수역
##개성
##시보
##공물
##공고
##자문
##예납
##개정
##위임
##도태
##이율
##훈장
##적응
##확장
##신청
##원부
##분여
##후보
##요구
##포획
##혼인
##과실
##참가
##경성
##유형
##매각
##발안
##단속
##위압
##분합
##예방
##보고
##취득
##석방
##해법
##우편
##동기
##폐지
##논죄
##약속
##소추
##범인
##차관
##분해
##체납
##전보
##무한
##총유
##배출
##의례
##심문
##전당
##가중
##분쟁
##교서
##농민
##이유
##협조
##소유
##조직
##원천
##담당
##추문
##매수
##사소
##촉관
##개선
##판상
##공통
##토지
##변호
##직공
##물자
##격리
##비속
##표시
##관념
##대인
##지불
##유괴
##객체
##개시
##환급
##규제
##우선
##사증
##시각
##차압
##병용
##사용
##신용
##인격
##주체
##승급
##외교
##일반
##전손
##해방
##한도
##위반
##구속
##휴직
##공포
##상간
##상호
##공제
##부부
##창안
##검열
##허위
##선고
##위탁
##비밀
##국무
##강령
##경역
##휴일
##포상
##서자
##살인
##횡령
##보충
##피난
##자격
##처우
##구분
##이용
##역학
##영치
##의장
##위부
##변환
##독점
##자료
##형식
##호적
##신립
##참여
##사선
##설비
##포기
##변동
##단위
##과목
##수명
##수사
##문명
##제기
##형벌
##모순
##자연
##분립
##갱신
##색채
##식량
##시행
##설치
##관서
##사상
##공학
##규격
##빈도
##선점
##정태
##변천
##헌법
##특례
##성년
##분화
##납금
##분류
##기감
##지급
##추궁
##배서
##씨족
##비가
##자금
##정시
##전용
##손해
##계단
##방매
##해석
##손괴
##초과
##감형
##운수
##득결
##감세
##흠결
##특면
##준칙
##공관
##변조
##수뢰
##서면
##이주
##재외
##알선
##질문
##운송
##결사
##청산
##기명
##호주
##정본
##문권
##면직
##배급
##순경
##지출
##보상
##진단
##완납
##법정
##감면
##피지
##여부
##시가
##추정
##주재
##출소
##물품
##서류
##국세
##통첩
##상환
##장해
##영지
##금옥
##장벽
##유대
##충당
##반환
##동산
##서사
##파산
##양자
##작용
##연방
##인도
##동인
##탄핵
##득승
##정기
##거절
##원인
##재원
##정장
##분리
##중심
##윤리
##출원
##사회
##조문
##조관
##승인
##학파
##기한
##임료
##예후
##옹호
##저당
##양허
##사무
##동맹
##배제
##장애
##경계
##무효
##경비
##청부
##거중
##세액
##법규
##위험
##좌익
##게토
##조계
##균형
##녹지
##출석
##부정
##화폐
##이서
##강간
##임야
##적격
##금품
##영업
##증인
##동정
##세입
##사면
##공문
##일부
##발달
##재정
##자본
##동학
##심사
##대학
##준정
##분석
##요강
##방법
##국회
##중재
##포장
##상소
##간부
##종신
##배부
##원고
##형성
##사유
##과세
##휴업
##이법
##쟁송
##결혼
##천민
##과두
##활동
##금전
##인족
##최적
##캡슐
##수면
##감경
##상쇄
##사학
##품질
##공급
##언도
##살해
##저촉
##잡지
##법률
##봉사
##관제
##상이
##취소
##작위
##과정
##집중
##환원
##절약
##날인
##징역
##압류
##촉탁
##예측
##밀도
##요인
##간섭
##무형
##병리
##일자
##치상
##순서
##구류
##봉인
##풍토
##투쟁
##방면
##보세
##실천
##권한
##형상
##표지
##하명
##입법
##인용
##물건
##기장
##정치
##필요
##유한
##상법
##제거
##전세
##욕구
##이촌
##영득
##공유
##항소
##소외
##범위
##공세
##퇴사
##친자
##유보
##규약
##배정
##재량
##문기
##여가
##세칙
##배당
##소각
##빈곤
##해제
##혈족
##가공
##경감
##선박
##은닉
##친족
##대중
##재생
##체제
##정률
##정비
##인간
##표본
##분포
##공판
##상속
##대우
##마찰
##계엄
##관세
##세율
##공약
##간통
##할당
##결함
##항로
##파양
##촌락
##직무
##여권
##공시
##감식
##송장
##면장
##관청
##안보
##기일
##파워
##기소
##임치
##부담
##조세
##이념
##기밀
##위조
##문구
##법권
##반언
##대행
##대위
##연도
##국경
##여비
##공무
##간호
##중립
##입양
##감시
##납입
##충격
##실현
##보전
##징병
##몰수
##조당
##사절
##미개
##유용
##일괄
##개념
##공법
##가입
##학회
##배달
##교환
##원안
##중지
##채널
##컬처
##지청
##사단
##지위
##이송
##봉건
##수준
##기상
##파업
##편무
##금지
##주소
##가구
##총칙
##송청
##특질
##상계
##일탈
##보석
##고권
##계속
##출입
##등본
##초본
##인척
##주거
##관찰
##특허
##상인
##자백
##면허
##관할
##공동
##배심
##분배
##관부
##가설
##이간
##창조
##지체
##용도
##예정
##절도
##인종
##조항
##인적
##규범
##식민
##수법
##감금
##보류
##투표
##정권
##식품
##합병
##준비
##통념
##트럭
##접종
##산입
##하여
##건물
##취지
##테이블
##수가
##실명
##회생
##공모
##방역
##전염
##동포
##민간
##관례
##후견
##상황
旅
狀
##혁신
##전문
##학대
##대체
##수선
##디자인
증뢰
##단식
##동류
##공류
적상
##형제
##사표
복혼
##남기
##낙성
비훼
추소
##대물
##초심
##채굴
##맹파
##삼일
근평
정법
환퇴
##보인
유체
실가
##국어
##면식
##세외
##선소
송장
##상훈
##산아
##충성
실동
##심소
##삼심
홍기
##강계
##블랙
##실형
##녹색
##직계
##협상
##교감
##본죄
##식약
##연락
##체선
##사대
은거
위경
농노
##현물
##복세
훈계
##완전
광세
본형
##권원
##흥행
##전투
여피
재시
##성계
향락
##종기
법청
##독직
##소재
##인식
경업
##잠업
참절
발문
문필
##예외
##후발
##면간
##인증
##촉각
##모방
##평민
##집달
##제오
일필
##성립
##성문
##서양
##선전
편면
##폭리
##진압
##입적
종죄
##호송
##등부
백의
민소
##탈루
##개도
##농경
##하부
금양
퇴송
##구주
##하기
입적
##간세
##영갑
종약
##수유
주법
##구상
득결
##영해
물신
##검측
벌과
수죄
##도작
##함정
##계량
##실재
수권
##농노
##금양
##혼화
##연해
##고한
##시심
##해난
##친등
##균점
##유도
주형
##결과
적화
##대량
##변협
세납
증장
##역사
##교정
##입도
정향
독회
##누퇴
##공전
##분실
호송
보빙
##급류
##유추
##단행
##양곡
일국
##적출
청허
연별
이격
기물
폐절
##사물
##정통
##수득
##분부
갱개
사술
내상
체소
##뇌물
##여적
언중
##공익
##노무
##재경
전혼
##재옥
##하자
##이질
##이윤
참칭
##우호
상린
##무해
##지종
##예계
죄례
모권
##부가
선금
추형
키퍼
##계장
##병과
##재주
##관인
##임계
##권장
##의판
##제작
##관구
##민원
##치재
권서
##묵비
민단
호구
##국고
잡종
통론
##반사
을류
##일국
##폐치
궐기
금제
##상시
##축소
##리언
##책문
##도구
##공용
##등친
##보강
##형금
논죄
증회
##실행
##시군
##경장
##송국
##부양
##평생
병종
##의율
##증필
강계
##휴면
##단족
##동적
##양원
##유상
##대립
##신원
작위
양척
성헌
##매스
##대검
##돈세
##모권
##격령
선화
##승소
##사적
##호출
##보통
##친권
##발금
본범
##동조
##통교
검인
대송
모살
내금
삼권
시담
##농성
적석
##서민
완납
##정선
법전
##산학
##각령
상연
##구두
##분수
오원
송국
##디피
오권
삼면
##유공
##명도
##수취
##과태
##치리
조령
##세항
##무증
금옥
##민소
수욕
##복임
##독촉
미행
##독금
별소
##순정
##기입
##가혼
##강박
법외
##공술
누범
##당률
##지시
외혼
##통근
##마약
##누감
##방재
##빈농
##원호
##영수
국상
치상
상층
##주간
##구술
##채광
##기좌
관선
##기생
유목
##종경
호모
방임
##자극
##법역
전치
히피
##중화
보방
읍장
##외부
사권
금벌
##국상
##모해
납금
##갱개
##갑종
리언
##연별
##환매
##가감
##송무
전래
##톤세
단례
##언안
##소환
##멸실
##관련
##물적
족청
공권
클랜
##성법
종기
##별소
촌락
##해사
##대한
##청장
공역
##무세
##통모
잡거
##우송
##압서
선소
##비례
배서
대혼
허유
##법례
복표
##창설
##연소
체신
##배척
##무산
##구문
계쟁
##읍권
##수익
##파견
##임안
##직선
##고검
##피켓
타태
직세
##수치
검속
##쟁점
##특명
##교형
##시좌
##안락
관적
통교
낙약
##존립
##종물
##시달
교호
##신흥
수득
##황견
##세법
##일시
##강행
훈방
##지목
민약
물상
##폐정
##계수
##족청
면관
##선금
축첩
병호
##서머
도항
##산휴
##무상
조헌
공리
##누수
타관
친가
요증
##가해
##연성
##판시
##전정
##재감
##안사
##조달
##상징
##장죄
표상
기속
##성업
방소
##위경
##누범
설유
##가사
##소속
궐석
##발고
##준거
백퇴
소작
흥업
입부
##수조
##간격
##발기
분파
##가담
급부
##정수
친등
절좌
##공민
##파출
##사점
기결
씨족
##일수
##약사
##조준
##표훈
급류
항거
##교원
##진화
##종족
식산
##수호
##순회
임계
보감
##수탁
##형헌
시심
연서
##일경
##문언
장무
심적
인장
##오상
##국토
##본질
송무
결안
##자위
##구권
##증장
##국헌
견련
읍권
##전판
법권
##자주
##수죄
##외사
원적
학령
감방
미죄
##다단
본적
##인류
##유질
반언
##전진
##비매
##응용
오상
임료
##안동
##영주
절식
차압
주휴
재옥
##첨병
##명인
무혈
##노예
혈연
해항
미결
##계고
##즉심
##취락
유증
##성숙
세권
종법
##전집
##미신
감보
##고소
##무전
##원범
##원피
##공인
##창작
##담합
##현행
##인감
##이이
##환가
##불행
##천부
상비
##허무
##문광
##악유
##하수
##민중
##반칙
병과
##법력
##염업
##자복
##무명
전심
##본범
##가임
##옥사
##부처
##레드
##반핵
##신득
타주
치재
특명
##외형
##갱생
##본증
병배
##약탈
위압
##채유
##일원
##삼자
##상습
산가
사문
##부합
##최종
약혼
연납
##한정
권매
##수복
엽기
##매상
##섀도
구문
휴정
##낙태
##신민
##배타
별제
##직장
##상설
참정
체선
##추방
##승선
##즉시
##주세
총형
##상경
결탁
신립
##원용
##원심
##전체
동태
응보
##상관
##유권
훈기
문권
##별정
인법
파공
##연기
##주요
##복제
가트
##징모
형재
##개방
##정조
회뢰
추급
종경
##형무
##준용
각칙
황색
##위장
##대신
목축
##해외
##기아
##유년
##외환
##벌과
요역
##감옥
##보수
치산
##동향
잠업
##해운
##임종
##유명
##축첩
##연좌
##학설
분익
##정합
우애
##부종
과료
##사치
적부
##수장
##자손
##위하
##출세
##단세
##재결
소가
다층
주병
갑종
탁치
복세
##복권
##소진
맹휴
교위
##표류
##연속
찰추
##다층
##습속
##귀농
##과기
농진
이감
형금
##환형
##집합
##정족
모해
##속지
##탈취
피심
##일조
##전무
##잡종
동색
##상사
문기
##전면
##전적
혈족
##후진
##자상
##어세
##신분
관부
##절좌
##전람
##증빙
전질
##휴먼
##인민
##전통
##절대
학리
##벌봉
##국병
##요식
##적정
게토
득송
제오
##결말
일실
룸펜
##지단
##청원
##낙농
남계
##형평
##낙약
##비트
##금연
##국립
직할
##가분
##수갑
종률
##월차
##약국
해용
##공매
##특정
대석
용익
##소청
양벌
##응보
분여
##신체
변리
인세
유책
이심
개서
##부기
##시빌
교화
##별사
역무
##보육
##면질
##해경
##도선
반공
환각
##내외
월차
##선발
##가맹
##보로
##입회
##강단
##대화
##시담
##의경
##불납
낙과
##학리
##손상
##휴식
##견인
체위
##히피
##퇴송
수몰
##시제
건평
형장
##독거
##기송
##고립
##편집
##계절
##정복
##구인
대습
##반전
조체
반정
납본
##전제
##총경
누감
##통혼
속지
##최후
##속심
##극률
##선서
##유흥
역형
##실증
##어문
##소가
##연루
##보시
##관업
##교호
##탁치
##일광
해손
잠행
##심신
##소방
##금주
송옥
##초지
##제헌
상토
##월권
매려
##일실
##사사
##초동
종물
##복수
##매여
##전위
##근대
경범
##재혼
##지상
포커
##가용
##개입
##인사
##결안
##결단
##고도
##견련
##실체
##복심
##음행
징발
##임상
##목적
##선임
##절혼
이촌
##약식
##소급
##진정
##간선
##통관
연성
##생리
매취
##항거
작량
정풍
##언중
##사구
종적
##준혼
##지적
담세
##공리
우송
##내지
##주무
##순연
##이북
##종성
##본소
특질
##양육
공함
##우애
징빙
##내란
##적극
##범장
선세
역권
##전부
##포화
##실정
법장
##종심
##전득
##유일
##강압
##수로
##모욕
##을종
##지조
##하층
수범
##향락
##미결
통혼
선관
민상
##병영
약전
##동시
##민재
##대향
##도항
개론
##취체
##군합
도범
갑류
##왕래
##체신
##모병
##추급
부계
법서
##대습
별사
##경로
##고법
이간
##현명
##직대
##비채
##현재
##고급
##모법
##기득
제권
##재화
유렵
##훈계
##동장
##방계
##첨서
##사후
종심
무애
##대소
##인준
##법장
##사영
##인낙
불심
##공신
##조헌
##단결
##폐창
##승진
단족
##첩자
검시
존타
근친
##하담
##내부
##적발
의판
##제사
##단종
##통수
##간수
죄범
본칙
##탈출
##대질
##당기
적산
##초기
조법
##훈시
##미래
##선매
왕법
##논리
##증가
장죄
##죄범
##공죄
##자존
석명
##거류
해원
혼화
의인
##유목
##기성
##본세
##노자
##입부
##포령
서환
##도달
자법
등족
어문
##인역
##민단
##대법
##혈통
##개헌
##기판
##농업
##물납
##국약
##대용
##간판
##해수
##의약
창안
유질
즉일
##실종
##이농
출정
##폭발
##산림
##형기
##활자
공죄
##상업
법금
##객관
##개괄
군국
성법
##제삼
해기
##임차
##평형
계리
감화
지조
##난혼
##고현
##지하
##개항
##지자
##민선
##관영
##접도
균분
판제
##대송
##통과
##징소
##관권
##기원
##기결
##장래
##점수
##음란
정급
##접속
##감청
신득
##법청
##물합
직분
##무공
##과거
무조
##사행
##실권
##수납
##해소
##공연
##해용
##각칙
##과밀
공차
##입건
##초허
##요지
##훈방
##경험
##가면
감형
##자구
##허용
##동칙
방매
영지
실해
피의
묵비
##합영
##오픈
##유엔
##공백
##근정
##소수
##이족
##차가
통첩
결결
##일등
##합성
##주주
##입단
##물신
##면접
##병사
인역
##불변
태업
기감
##이시
##평시
##본칙
##선관
##장제
코먼
중합
범의
요상
##광복
##정액
##신축
변량
##보관
이법
##생지
지료
공의
##상류
귀착
##금권
##정역
##중진
##삼림
##산전
##의업
사구
융즉
종성
양속
##송소
##재신
학설
이차
##인문
##국선
##해송
##유료
일심
##성인
폐파
##저작
##성실
##인접
##제정
##녹음
##결효
##해태
##문리
##능동
##육법
##방석
##감화
##산자
##쌍계
##계쟁
##무료
##역진
청용
위부
사종
##경상
상각
##이번
##직세
##상비
##궐기
##출판
##기초
##집산
##민병
순연
##음악
심록
##이원
##노인
##미스
적색
##대석
장의
등차
##풍속
##이피
귀재
심급
무체
정감
##말자
##별산
##노쟁
##경락
##청취
##외국
도품
##주사
##정형
##심결
갑근
##체소
폐치
##내무
##세비
건체
##반소
##상당
##곡물
##내용
사영
##직위
##거주
##황색
발고
초허
간통
##상륙
송사
##회유
##착수
##장닉
별건
##관료
장물
##여계
##적하
형과
기송
상언
##선동
강권
##형과
##검진
##상급
조대
회합
금종
##반정
##변량
##육아
##반치
##농진
##종량
##요역
##폐제
##입증
##보복
고혈
##군수
##프티
##수습
내해
##갑배
##삼진
포령
##수동
최빈
##유령
##요물
##단권
##인위
##물세
##중동
득승
##종주
##난민
##특사
##광해
##추경
##중합
##소셜
##실향
##부관
##영조
인허
##종국
황견
영공
파킹
##부수
##수렵
##과오
독임
공서
##추완
##질권
미개
권원
##형소
역연
##청용
##의제
##종약
##남녀
##과당
##누설
##패널
##개량
하명
##운반
##종교
##업적
휴기
##양벌
접송
##혼합
을종
##외인
##융즉
##기회
다핵
##환각
##상송
##폭로
##자살
##주선
##고위
직대
직류
##대명
##매취
##민약
##오열
구권
본죄
##부서
연감
반치
##수소
격령
동권
##총무
소고
##산재
##선세
백호
법의
절혼
##쌍벌
##노농
##여세
조관
삼심
##농활
##공장
##허유
##유효
##참칭
질물
##전출
##비지
##구타
##총형
##공식
동적
채유
고언
##법조
##상무
##민상
수뢰
지보
돈세
양원
소건
삼도
##공갈
##액션
##송부
##누진
##기만
##소련
비송
##임대
고한
책문
##고충
##위요
##권서
##여론
을호
##주지
##근해
복적
##입국
##유기
##무권
사증
##수욕
노자
규준
##출정
##간범
##동색
##을배
##고발
##위기
경역
결약
##복혼
##일급
관업
국병
##국사
##불로
##군단
##자법
국헌
##법치
잔부
단권
##기수
여명
##강임
인두
##초상
유제
율령
##이차
##경선
##법리
##회부
##귀적
##검인
##경위
##인공
시좌
##외설
##몰취
##시세
##실효
##근린
환형
##침묵
##냉각
예납
예속
##설유
##소액
##소고
거중
분부
##금제
##국부
법적
##도박
##중용
##도주
몰취
##폭행
##차장
철경
음행
##폐절
##가옥
##국내
##안기
##전권
##정풍
##불응
##흥업
##주형
##심급
##상적
##실질
##인쇄
##청각
##조법
##수탈
적령
##지연
##결탁
##타태
##실물
집형
##부당
##청년
##표식
비매
##대등
이부
##영예
##사성
면간
##민생
친권
##해안
시제
##한미
##유아
##수회
##손금
본세
차임
##사종
##영리
양세
파훼
첨병
농활
물납
##방독
##저격
##부령
##증회
##질입
##기류
삼법
각령
##위법
##목축
##할인
##실해
##법계
##하청
경적
혈흔
##자력
##영공
무권
##연정
##정상
##협해
##비송
##재치
모병
##주조
##통풍
##윤락
##인세
병용
##팽창
##보빙
청임
##지검
##휴기
##죄형
##사냥
##해권
간음
##가자
##수어
종족
##관허
##구형
##재송
직공
군합
##체옥
##수교
정률
##파기
입질
##겸직
##정정
##무조
##재무
삼풍
##단기
##조령
모용
##척제
방독
##조성
##배관
자익
경개
##원물
사세
통모
별산
촉법
방헌
##영웅
##맹휴
##경관
감치
##선정
##호모
##수형
행형
##수감
##적자
형소
##단일
##약혼
우범
##총량
##합산
##균분
육영
##종속
##수신
##주물
체당
##외화
범장
##상임
##우범
##사해
하기
##공안
##어렵
벌봉
가혼
하담
##어선
표견
교서
수회
##회합
질입
물권
##세권
##법금
본무
##이중
##파훼
##해지
##남계
##종규
혈통
##영국
##보완
##상린
##헌혈
응문
##인허
##타관
##주범
특면
##잔부
##자서
##착각
가납
##지료
##방화
적도
##특수
##분만
##남자
물격
##배수
##장착
##위자
##청임
상훈
입어
##하위
##쿨리
어세
##실시
##기동
삼림
##물상
원물
##청허
갑호
지가
##확인
##국방
##수령
##합헌
##광산
반핵
##해원
가택
##본국
무세
##결핵
##여성
##조광
삼부
##파상
##가부
##독임
모계
##심계
##자수
##탈법
##징벌
근정
부권
##횡단
습업
##양척
금조
##참정
##신사
##부전
##연서
##쌍방
##해상
##의정
##문자
##경작
##구빈
호별
폐창
재신
은피
중혼
표집
법역
의율
##치안
##도품
데마
개병
##금벌
##삼풍
##지참
##소첩
##세척
##서남
##훈기
##이심
##도경
##한지
##청중
##중과
악유
##멀티
##혈연
##출납
##노사
언안
##법서
##오원
쌍계
##납본
응소
##평고
##차지
##사세
##배임
준거
조출
##영토
원권
합영
##조대
##보방
쌍벌
##간이
임검
구류
징봉
##반이
##코먼
##잡혼
##채송
득면
##재난
##문필
##경호
##수시
##수심
##손익
명도
##중복
##율령
##삼도
##기산
##체질
##착취
췌서
##건교
감등
변용
지단
검측
##기대
##은피
기국
##근평
##가장
##종적
색의
##무체
##용인
합유
환가
##검시
복심
안사
##요상
##출국
인환
##해당
매여
##대혼
학파
##지세
무증
##융통
##물증
평민
임안
##원권
##건평
##담세
여적
##소명
거류
이농
##상성
##잠행
##명예
##부권
##법사
##중개
##폐파
##수임
##의용
친생
성문
##소개
##거소
##응문
##간증
폐제
금렵
##판관
약조
##인환
##면소
##도세
청부
##저항
##산제
관구
##도축
##재전
##환취
채석
##한국
장닉
모법
##유통
##훼기
##해항
지서
##제출
##질물
##쟁소
##공작
독직
전판
##육성
취락
##대세
##수전
해권
##불심
##비상
##정법
수복
면식
수속
실재
##본래
수렵
##불고
##일차
##고언
##노비
##데마
##전혼
맹파
##폐가
##경과
##공천
파상
전득
##준법
첩자
##잔지
##친가
타유
물세
징판
##협박
##사신
정학
지세
자손
##약조
##율법
##교화
평고
##말소
##지법
구치
반이
##증언
##유전
결효
##성헌
조부
##소건
##실지
##잠정
##매려
노쟁
##대상
##유서
##발행
##체약
지종
##분익
##총살
##선행
##합법
적하
##종류
##중요
##선결
##유책
산아
##검찰
##복표
##방임
##참관
##정적
##횡적
##유신
##용익
적의
##재물
##척추
##관재
##형장
##건전
##현지
##흑색
정역
##표현
대향
##주관
탈략
호혜
행소
원호
##윤회
소권
협해
상간
##사권
##해기
시빌
##공산
독방
##원시
대심
##간음
##병무
상적
##감염
위작
##비호
##국보
##이성
전람
##개업
승조
##아보
잔지
##소인
##입항
##부세
##비자
##유가
##일방
##분파
##인신
##삼면
중류
##타유
##연석
##순수
##참심
##궐석
과징
##수경
##보급
동칙
판관
##방헌
##무혈
군혼
##공수
수경
##항복
집산
##수난
##유익
##을류
##유행
##해직
##압송
##면조
##습업
사점
##야간
##실가
##복선
##과치
미곡
##부칙
##현장
일건
##증뢰
##직할
##한시
해난
##연체
##정황
##농림
##갑류
분가
##폭동
남권
독금
##발매
##실범
민재
##모성
원범
면조
상송
##전경
##미혼
형무
사성
##비약
##추형
##항만
##속인
##번역
##실동
채송
비가
##종법
##반공
##광구
윤락
##일신
##과표
촉관
발금
##우발
##만국
##친고
정본
성계
##보칙
여계
##감보
##관적
하층
##검거
##단혼
##격정
##미곡
##모처
영치
##중혼
극률
##내정
##전관
##제권
왕제
##조체
천부
##관습
고방
##만료
##피소
##행복
##주법
##정향
##흡수
즉성
간증
갑배
##세렴
증문
저격
##원적
##수몰
##요소
##상토
##가단
##파매
##자매
##광세
##상층
##공선
허장
잡세
##연초
##야생
##휴지
##응소
##확신
건교
종범
##스몰
준혼
실권
##해임
##육영
##불매
##정무
##요약
##미행
접도
##거동
출옥
현유
##상품
즉심
##별건
##견책
##창립
##내국
매상
##전유
##삼부
##동혼
##접견
##형정
##적산
##직접
##그린
##조수
##동참
##소문
강임
##유실
##장로
영득
원피
##수인
##현대
##공지
징모
##본무
##하류
##해적
##독방
##서증
##최빈
첨서
유징
##주병
정합
##적대
난혼
##인장
##추가
##조부
##패소
친계
##송옥
##서독
##표면
##남권
격정
디피
조당
##유렵
심증
##사도
공창
##체형
##폐차
공술
총살
##약년
일경
##고방
##추소
##낙송
잡혼
##흑인
근해
빈농
##경무
##판례
방석
관권
##수비
참심
서자
규문
##비준
##벌금
##공담
자복
인낙
##대항
##조망
색출
재감
##휴정
말자
##통고
##종죄
조역
심소
##묵인
선매
##우성
양녀
##여피
가임
##존타
##병배
##납액
##편면
프티
##전파
##양녀
##공위
상차
##법제
##추심
##식산
예양
법익
##형률
만국
적모
##역무
##직간
##수출
##단독
##대심
박약
가분
집유
예계
##제일
##공해
제삼
전위
적국
##백색
##대마
동류
##기여
##혼동
고권
##복적
##경적
능욕
##불문
##환퇴
항복
##현역
##소지
##외무
##이감
##재시
모처
환부
요물
##초야
승역
##귀족
##누적
##미주
##무고
##소녀
##광업
해송
표식
##배석
##제척
##영전
발안
##서한
##종가
##지보
##종률
화의
##승역
검임
##경업
##도망
##유세
##형명
송검
내혼
불변
##왕법
##지지
##영미
##인가
##내연
국약
##농약
##결약
소구
초본
##승조
##적성
##실용
격시
간범
##변리
관허
##색출
##비평
실향
면질
고입
##연쇄
대질
##친계
##퇴거
##공영
##외통
##요증
##내상
##동질
##호세
##친서
예후
##필적
##세금
인족
##공적
##최혜
식약
##궤도
등친
##정사
##즉결
##상대
##위작
훼기
##강력
##고범
산제
법력
##구청
당률
##주휴
##비훼
##인두
##증문
##피심
편무
치리
##탄력
##면책
##교수
##내해
##조율
친고
중범
##종료
##의인
세렴
통항
##반면
과치
##경향
##본형
##공함
##관용
사신
체약
##촉법
##귀휴
##호혜
##적모
##정박
##호별
##상권
##징발
역진
##경범
공선
형헌
##보안
불고
##공금
##세무
##중범
##상선
##쿼터
##부계
##직제
##과율
국법
노비
##장물
쿨리
불납
관재
##위계
##사수
##특유
교형
쌍무
##추탈
보칙
수어
법계
무전
##가택
##공중
종규
##모살
##세전
과율
##대승
##희망
흠정
송소
##회뢰
##연애
분합
##집형
죄형
##성원
##답변
##정착
##별제
##거대
##반송
##사십
##병종
구환
##산가
사십
##일건
##사서
##복리
##해약
##전도
금권
##사형
물합
##허장
작권
##상장
준감
##개별
구빈
##유징
##반론
##출연
##상연
##국외
귀적
##직분
##체당
염업
증필
##강성
##징봉
형정
##표집
##농협
봉건
##부제
##화재
공물
##법문
##신입
##수석
##본권
##전래
고범
##기정
##특검
##양세
##정직
실범
##자율
파매
재전
##강권
총감
##부속
##위식
영갑
##이슈
##가납
##응송
누퇴
##형재
도작
##유족
##호유
##무죄
##참고
격지
##독일
##철강
습속
##화해
##장무
##장식
##건국
##제조
##세납
##확대
##대선
##결손
##특임
문리
##분묘
##접송
소첩
##상차
##수수
삼일
##검임
##직렬
수탈
##연차
판상
형기
##포커
##갑근
##하급
추탈
간세
##차량
##고유
##근본
척제
##호구
##산하
삼자
##국감
##선착
##부과
사민
##비교
도세
##연주
##내금
##이격
##전심
##기국
처단
##논고
낙송
서증
횡적
##행자
좌익
##모범
##사죄
##외상
##심적
##석명
##절식
파양
##상영
##미관
##절충
동족
##귀속
##연출
일급
득신
##사술
##정한
##자익
법례
##수세
##대내
상성
보로
##전복
도경
##강요
##행소
##지명
##국기
##세론
##최저
구주
##유죄
##금종
##자조
##모두
##단례
##조출
##법적
생지
##정급
균점
동혼
##승낙
압서
##제납
##존엄
##적도
##파면
##미죄
전정
무후
##경력
##능욕
##도범
위식
##동족
필적
천민
##실비
적출
##백지
귀화
##중류
##국법
##을호
##온정
환취
##당사
##고정
##결석
##법무
##집유
##소장
갱생
##대륙
##등족
##단수
##농촌
##어항
세론
##기물
##오권
##선원
옥사
##일심
##상언
##의존
##범칙
##본안
##역형
##관선
##발레
##가상
성업
##선취
간수
본증
##심록
계고
##결심
##전속
##국교
위요
##금렵
##공역
면소
##삼각
##방수
질권
##개인
##사료
##양형
##전개
귀휴
##행안
응송
산휴
전손
##동거
##보건
##독립
##결결
##포괄
##세태
##재범
##군정
##발문
##갑호
##은거
##국정
##실력
약년
부락
##출자
##공차
##유혹
##위태
본소
##약취
##보조
징소
##가트
##역권
##모계
불양
##연결
관인
##조차
##적색
##경개
##영유
공류
##가혹
##소극
속심
여세
##원조
##작권
언도
##독감
##입질
기좌
##격지
##시청
세항
##위헌
##추징
##부채
##고입
##전시
##자필
##경리
관유
##국유
##위약
##구환
##선례
수갑
##낙과
즉결
오열
단세
##소요
##선진
##채석
##예심
##군혼
##이적
단혼
복임
표훈
##인법
##근거
폐정
본권
##고혈
##성공
형률
##가축
##실화
##득송
본위
##즉일
##보국
##회색
권능
##세계
##다중
##훈령
체옥
##금물
##공출
##표견
##학령
최혜
개괄
##백호
##철경
##전과
##역연
방계
의업
##친생
##징빙
##거증
##처단
##유체
##규문
##이경
##문체
##무후
##불량
취체
##위증
##중산
##실리
##전직
객체
##주위
##생전
압송
모식
##유수
##의명
##권매
##부유
##치외
준정
##재소
##기호
연좌
##관유
공출
##귀책
##대결
물증
##영구
거증
##찰추
##성명
##귀재
일등
공담
##적화
##과대
##토털
##추계
##물격
이피
##편익
해전
##타주
##통항
##관치
송청
##본인
영전
##금조
외설
##과료
집달
##출구
##전수
##생존
의명
##전치
유괴
##간소
##적석
공위
##이월
##교위
대소
##원자
총유
##배해
##선적
##연말
##취학
##대양
##외자
##한일
##불복
##즉성
##방소
심계
##조회
물적
약취
##직능
##참절
##연납
##공창
통령
폭리
##방공
##언어
##전형
##파생
##대외
##군국
##균등
재송
##경질
##엽기
예심
물법
##상위
치외
쟁소
##사본
추완
제헌
##이단
##물법
##입사
폐가
과두
##기속
##격시
납액
##고농
초야
변천
##백퇴
톤세
##물질
##도립
친자
임치
##추적
##이부
##잡세
##출생
##접근
훈시
##노역
##후기
장품
##소파
증지
##아동
차가
##단순
##장품
##단원
##혈흔
##유류
##시한
##미시
논고
호유
무해
노농
이족
##입어
##등차
##췌서
##송사
쟁송
##법외
##흠정
율법
##일필
##감봉
##종중
세태
##현유
##차로
낙성
제납
을배
##발신
##룸펜
##차임
##탈략
배해
##다핵
형명
##당연
##건체
비채
##지문
부관
##복구
##집적
##감리
##마련
##건강
##증진
##특화
##군인
##유선
##유해
##약물
##합중
##요원
##복무
##기반
용법
##대조
##폐기
##용기
##점포
##주점
##접객
##정제
##제곱
##운영
##광물
헉
조촐
뻐근
곯
캬
땃
가냘
##퍽
젬병
냇
맟
어깻
툰
쿄
쵸
学
教
##뒹
#쭈
녘
##쏭
룬
캉
##뻘
왑
##윅
삑
좽
##죔
##뼘
##찡
쾨
핌
홑
횅
##좆
##껸
##줏
꾐
##흗
##삯
##둣
##숄
휼
##햏
웩
##볏
콴
끽
##톳
겜
뽈
##팹
슌
숀
햏
##잽
갬
##켕
##볜
쟈
##쎈
##꿩
##챗
##됴
##쭘
쳄
##멱
##랒
##껌
뢴
##왁
왹
##쭝
낑
##믈
##겜
뜀
뫼
##캅
셴
솽
쇤
숄
##츨
##펭
##좡
##맬
싯
##캥
##셴
##뇰
엡
엥
##룔
왁
욘
욥
##쑹
윔
##솝
젬
챈
쳉
쾰
쿰
톄
##윰
푄
##벵
##뎬
횔
괼
##셤
##볘
돤
뒬
##퓌
##륄
뤄
##훙
뤽
##탸
##푀
먀
##겅
묄
뮐
##젱
뱁
##륀
##댜
##됭
벰
뵘
##뢴
##젬
##룀
##렝
##왐
쑹
##샨
##얌
##툉
욀
웟
촐
쵤
##랸
##쿰
캑
##쾨
##툠
퓌
##텡
헴
##퀜
##뱁
롸
##퀼
##캬
륄
뭄
뱌
##헴
쾅
##뮐
넵
##튠
##숑
웡
##롼
캥
##땃
##섄
##촐
##녑
##엡
쎌
##쎌
##앳
##죤
눙
뎅
롄
##욜
##뱌
묀
##깩
꼿
##꼿
눅
##릊
뱐
뻐
뿡
삔
##쫑
왱
##줅
웽
쩌
쫀
쭐
퀭
텁
휑
##괭
괭
##믐
낟
놋
##꼍
##깻
##귿
똬
멥
볕
뼉
삯
##갗
섶
##탉
##뜀
##곗
##잿
##닻
##곬
##냑
##읔
톳
툇
튤
홰
닢
##괵
뼘
##꾹
냠
##냠
찧
읊
땋
쨍
##쨍
##쬐
##뼛
깽
껑
땟
##왱
긷
##냘
붇
뀌
##섶
##덫
##욤
깩
빰
섧
##홧
겻
짹
뽄
##뽈
##밧
##큠
##챤
##먀
##훅
##쉘
##탯
얠
##숩
얏
##띰
##씰
쟌
##숌
##쨈
##쉭
##귈
퀼
##앋
##뎁
쌘
쌤
씬
##뉸
##흄
##휄
##쟌
##텟
##쳅
##핼
##똠
##넵
##묄
##룅
##웜
##웻
##벰
##퀌
튠
##틍
숩
##빕
##쳰
슁
##죌
##힉
##숀
셱
##휀
##뎐
##슁
뻬
##샥
##줴
섐
섕
##셧
##쾡
##뭀
쁠
삘
##옙
##괼
##눗
##쵸
뷜
##릐
##넹
##힝
##붑
벧
##뿡
##쟝
##욧
믈
몾
묠
##넴
##펏
켱
##갬
##먕
##쮸
##쭹
##캰
##뤽
룻
##풰
##쥴
랫
##뗌
##톄
##묑
##뷜
됭
됴
##힛
걀
##룟
##폘
##헵
##웽
왝
욤
욧
##쳔
##웸
##펨
웝
##쿱
##쭌
##듸
괵
##륌
##큅
##뻬
##푈
녁
##뤀
젱
줴
쥰
즌
##첵
##뤙
##벛
쨩
쩡
쬰
##쬬
쮸
챤
죤
쳰
촨
##쩰
캇
##큄
궨
##뇬
##놋
##쿳
##랲
##튤
##녈
##횐
##뷘
텡
##꾜
##뉼
##뢱
윅
##웡
툼
퉈
##뢸
퍄
##쳉
##잰
##먈
##샾
##잍
##츈
##껫
퓐
##퍄
##쟈
##욀
##삔
##롓
##뢍
##셩
##쥰
홋
훕
훠
휫
##뵤
흫
힛
힝
##닢
##룐
꺄
꾜
##뵐
넨
넴
녜
녠
##챠
뇔
눗
뉠
##훽
##뛀
##랼
뎬
숴
쉿
##쩜
옜
##냬
냬
렷
겯
꽥
##꽥
##낑
눋
덖
뒈
##긷
##쐬
벋
슴
##틔
쌜
##찧
좨
쩝
##쩝
##캑
킁
##킁
##헉
홅
떫
##짭
묽
쀼
##땁
##닯
##삥
##옅
잗
##쫀
켸
##켸
휭
흖
##떱
##쨋
엳
##깟
##갉
##꼰
꼲
꿱
##꿱
##닳
##튕
땍
##땍
떽
##떽
뗑
##뗑
##곯
##삑
##찟
쉭
##쌜
##깆
##겯
##짹
쨀
##쨀
##삣
컹
##헥
##묽
흽
##뿟
##갭
굻
##떫
##뙤
##쀼
쑬
##쑬
##얕
틉
힁
끍
닁
##닁
뺜
##뺜
쏼
##쏼
깟
##깰
##꺄
꺅
##꺅
꺌
##꺌
##껀
껙
##껙
껜
##꽈
꽐
##꽐
##꽹
##꾐
꿜
##꿜
끅
##끅
넹
늴
돠
돨
##돨
##뗏
똴
##똴
뚤
##믄
먈
##뜽
##칮
뱍
##뱍
##뱐
##픗
##읏
퍙
뺘
##뺘
뽁
##뽁
뿍
##삘
##몃
솨
##솨
쇰
썽
쏭
##쏴
##뭏
앍
##앍
##왝
##왹
욍
##욍
##웩
##잴
짯
##짯
쩟
##쩟
쩽
##쩽
쫘
##쫘
##쫙
쫠
##쫠
쯧
##쯧
캭
##캭
컁
##컁
컥
콱
##콱
퀑
##퀑
##툽
퉤
##퉤
퍅
##끠
헙
##헙
##헹
##홰
홱
##홱
##휙
##휭
##푝
뉫
늧
댱
뎍
뎜
뎧
돓
둼
듨
뙹
맔
##겿
믠
볌
봋
붴
븨
숳
싀
쐑
앏
젹
쥭
쳥
츼
캰
##솎
##귓
##뺄
##윷
##늿
##큇
##겡
##옻
##픠
##즛
##칡
##챵
겡
##븜
##믓
##튐
##쌤
곬
괏
굄
##눙
##졀
##읫
##잫
##긔
궉
##뙈
##벋
##죵
긔
##띳
##뀟
##쩩
꿸
뀀
끎
##끕
##휨
##뉨
##뎝
##쥭
##좃
##겻
##뀀
##끎
##켤
##쏨
##븨
##춍
녕
##쌘
뇟
뉨
뉵
늬
##쥣
##쨤
##댱
##몌
##낟
##삵
##뒈
##됫
덛
##엋
뎌
##젹
뎐
뎡
뎨
##귐
##꼇
##쫏
돐
##횃
돝
##읒
##읗
##듥
##렫
뒝
##굄
##젭
##혓
뒨
##셕
듕
##딀
##윔
듸
##꼉
##멎
떰
뙈
띔
띳
륵
##섥
##셍
##뒝
몌
##늣
묏
##뭍
믄
밈
##츗
##풂
##춛
##땔
븍
뼝
##굠
##툿
섟
##겆
섯
셤
셩
##툐
##슌
##졔
##쾃
쏨
쑈
##찱
##뗀
##즹
##갏
옙
##듁
옰
읫
쟉
##읓
켯
탯
##앝
##읕
듦
큘
묫
윱
쇨
췄
##섦
쪘
뱄
슷
텟
읕
샥
쨈
톺
##펐
##쬔
펍
섦
쐰
띱
##짼
쒀
좔
##좔
##읜
갰
쿱
캤
졔
썲
틘
틜
촤
쇽
씐
닯
랸
쿳
##윕
쫌
뀄
##펍
녈
삡
쳬
둣
얍
썹
##뮨
윰
렇
쨉
쟝
챵
갼
튐
큅
죈
##캇
##솽
꺋
꺍
웸
##쪘
냑
뎠
젋
쫒
쉥
띰
켁
##켁
훓
##팃
##뇐
숑
헸
땝
꿴
듈
겄
##쥘
튬
쎔
홛
넒
챨
븐
뀔
굣
큭
##뇔
##뵘
펐
##욋
멨
놘
쟀
렝
촙
샙
##흣
햐
삣
##봬
궜
##쑨
윳
젭
읜
쒔
샾
##쓔
슉
쥡
듐
짼
횽
깳
##껜
뵤
틋
쥑
푀
튿
닺
##꼐
욺
##쬘
쾡
읏
쬔
궃
##죈
쐴
좡
툿
뚠
##뽄
롓
괞
썅
죌
쨘
귈
헀
갗
쳔
쥠
졍
쬘
##렜
뗬
읟
힜
챰
밞
찿
햤
굯
췬
뷮
웻
츌
췰
쏱
퓸
둴
넏
젇
뇰
퀠
괒
꽌
낵
뀡
쾀
밠
죵
탸
뉜
쬬
껠
##쌰
팤
잆
텉
뭬
씼
밣
둟
읺
녟
롣
쿽
앻
횐
릍
졋
폅
싥
졀
팃
왐
곚
뤠
텥
츤
똣
붸
쌰
봑
볽
큠
릐
깠
읷
쉑
##쉑
뻠
픙
##잌
읃
핪
##쉈
툥
굫
쑴
늣
꼇
빋
햔
닡
엶
놧
짦
띁
틑
픞
걘
뱡
냤
옯
핳
뗌
륏
읔
곷
덷
떄
긃
뱜
뗴
눴
딨
룜
읩
뎟
읙
랗
텬
얩
쟨
쨰
킄
##킄
춛
툐
몀
욈
넗
앟
섷
띡
귡
릇
쉠
곌
졈
퇨
엩
넀
얆
켔
씸
펏
춴
믕
줫
웒
뇸
룔
촹
뽜
댛
뚸
얜
폿
퐈
럈
웤
뜩
맣
흜
쁨
떻
냘
잶
췀
깵
룀
챦
륀
뀨
쨔
읠
걍
쒸
껨
뵨
##쥠
넠
쁙
찟
쟎
겆
됀
삷
됬
푈
벍
릌
넼
쵀
섿
밮
꽜
햑
덪
쳀
죙
뷘
쪾
삠
쭻
##쭻
퇼
떪
쨋
죱
죚
##쪾
뭏
휄
##큔
겱
##챨
겵
겴
흴
쯘
랐
갋
팎
셥
꺠
솅
튓
굥
늉
쭤
##켭
##췻
##짰
섈
쨌
큉
훵
츰
##녠
쏸
룅
##햅
쫴
##띨
볜
뿟
##죡
##잤
##큭
횰
톼
쳅
##샙
귕
돎
##쉔
##빰
숌
쩜
틍
녯
꾈
즁
텨
퓔
옝
몃
쉌
븜
퀜
뿾
냎
##뵌
쳘
똠
깶
벴
빱
몐
겣
뜽
츔
뽓
##퓔
륌
듶
뼥
욋
뇐
뭥
욉
끞
빬
맀
쩬
칢
퇀
몄
랖
몯
솬
컽
훽
##뗘
##읖
깸
##샜
##훠
˙
쫗
##으로서보다는
##에서만이라도
##으로서보다도
##으로부터만이
##에게만이라도
##로서보다는
##으로부터는
##으로부터만
##으로써라도
##만으로서도
##로부터까지
##한테서까지
##한테서밖에
##에게야말로
##에게까지도
##에게조차도
##으로밖에는
##에게로부터
##에게서조차
##에서조차도
##에게서든지
##으로부터의
##에게서까지
##으로부터도
##에서마저도
##에서부터도
##에서부터는
##만으로서는
##에서부터의
##으로부터두
##에서보다도
##에서까지도
##에서야말로
##에서보다는
##만으로써는
##에게라도
##에게서의
##만으로써
##으로써의
##으로서가
##으로써만
##에서라야
##으로부터
##마다에는
##로까지의
##까지에는
##까지에도
##으로서두
##에서만도
##에서와는
##에서보다
##한테서만
##까지만도
##으로나마
##까지로서
##에게까지
##으로서의
##에서처럼
##한테서도
##에서부텀
##부터라도
##에서만큼
##에게서나
##에게서도
##에게서는
##로서만이
##이라든지
##로부터두
##한테서는
##한테라도
##까지든지
##에게만은
##에게든지
##에서마다
##서부터는
##으로써는
##로서보다
##에서만은
##로부터의
##한테다가
##에게와는
##에다가도
##에서까지
##에서라도
##에까지는
##에게보다
##서부터가
##까지라도
##에다가는
##하고라도
##에서나마
##으로서든
##으로라도
##까지보다
##에서부터
##에서마저
##에서뿐만
##에까지의
##한테만은
##에게만이
##한테서두
##에서밖에
##으로서는
##한테든지
##으로서도
##로밖에는
##에서든지
##에서만이
##이라든가
##만이라도
##마다에서
##에게뿐만
##까지밖에
##에까지도
##로부터만
##에게서만
##에야말로
##으로든지
##으로까지
##까지로선
##까지와는
##에게서두
##서부터의
##으로만은
##로서뿐만
##한테마저
##으로서만
##에게서뿐
##만큼이나
##만으로는
##으로밖에
##에서조차
##에로까지
##로부터는
##로부터도
##만으로도
##한테까지
##에게조차
##더러만
##에나마
##만큼은
##에서도
##처럼은
##더러도
##에서두
##삼아서
##마따나
##으로두
##밖에도
##만이나
##로서의
##에로도
##서까지
##으로뿐
##에서든
##에서와
##만치두
##에게도
##께서두
##서만은
##까지는
##마다는
##에다가
##에게만
##마다의
##부터를
##로만이
##조차가
##부터로
##보고서
##로든지
##보고도
##만으론
##밖에는
##한테나
##까지도
##까지가
##만치만
##에만은
##조차도
##에부터
##치고는
##말구두
##뿐으로
##하고만
##처럼도
##으로선
##로서가
##에보다
##한테는
##에라도
##조차를
##보다두
##로까지
##같이는
##로써가
##은커녕
##이나마
##만큼두
##처럼두
##까지의
##한테다
##한테만
##까지고
##부터두
##서만이
##마다로
##마다에
##만큼을
##에만도
##로써의
##로서나
##하고나
##조차두
##대로만
##에조차
##에서만
##라야만
##서든지
##이든가
##이라면
##로서는
##대로두
##에게선
##까지로
##에서뿐
##야말로
##에서야
##인즉슨
##에라야
##에서나
##대로는
##더러두
##에서는
##서부터
##보고는
##에마저
##부터도
##보담도
##대로의
##이든지
##하고가
##부터는
##보담은
##라든지
##까지만
##한테도
##라든가
##부터가
##에게다
##께서는
##더러는
##으로들
##로만은
##만이야
##보담두
##뿐만이
##으로든
##으로만
##까지를
##는커녕
##부터나
##으로야
##말고두
##에게나
##일랑은
##까지에
##에게로
##이라고
##같이가
##만큼도
##에게뿐
##한테선
##에게든
##로라도
##로써도
##까지두
##서조차
##까지나
##뿐만을
##부터의
##에게서
##보다도
##같이두
##서라도
##로밖에
##이며를
##말고도
##한테서
##에서의
##로서야
##으로의
##한테로
##하고두
##에게의
##에게와
##께까지
##하고의
##께서도
##로서두
##으로가
##만치도
##까지야
##같이만
##하고는
##으로나
##으로도
##에서를
##로서만
##가지고
##로써두
##로서든
##으로는
##한테두
##에게두
##부터야
##서만도
##마저두
##에서가
##말고는
##보다야
##로부터
##대로도
##만큼만
##보다가
##만에야
##에로의
##에든지
##에게는
##에까지
##하고도
##뿐만은
##에만이
##같이도
##로써는
##이거나
##마저도
##께서만
##보다는
##으로써
##하고야
##로서도
##밖에두
##으로서
##로나마
##께부터
##치고서
##로다가
##로서
##더러
##로써
##에는
##로의
##에가
##한텐
##랑은
##께로
##께도
##만치
##서껀
##한테
##서를
##치고
##로든
##라서
##만큼
##와를
##로두
##이다
##는야
##께만
##만을
##치곤
##과의
##서만
##이니
##께나
##께서
##과만
##만에
##에게
##과를
##밖엔
##말고
##마저
##께선
##에겐
##하곤
##로와
##서나
##서는
##밖에
##게서
##이든
##서든
##깨나
##부턴
##만이
##서두
##에든
##서의
##보다
##에서
##에로
##까진
##께두
##을랑
##만도
##즉슨
##에야
##엔들
##로다
##께는
##과도
##인들
##이라
##에선
##에를
##뿐만
##따라
##인즉
##에의
##에만
##이고
##로야
##로가
##뿐이
##만의
##와도
##와의
##으론
##과는
##와나
##하며
##와두
##보단
##로는
##에나
##라야
##로도
##만두
##서야
##와는
##서도
##에두
##마냥
##이건
##삼아
##로선
##갖고
##로만
##시여
##만은
##일랑
##와만
##까지
